{"<|endoftext|>":0,"!":1,"\"":2,"#":3,"$":4,"%":5,"&":6,"'":7,"(":8,")":9,"*":10,"+":11,",":12,"-":13,".":14,"/":15,"0":16,"1":17,"2":18,"3":19,"4":20,"5":21,"6":22,"7":23,"8":24,"9":25,":":26,";":27,"<":28,"=":29,">":30,"?":31,"@":32,"A":33,"B":34,"C":35,"D":36,"E":37,"F":38,"G":39,"H":40,"I":41,"J":42,"K":43,"L":44,"M":45,"N":46,"O":47,"P":48,"Q":49,"R":50,"S":51,"T":52,"U":53,"V":54,"W":55,"X":56,"Y":57,"Z":58,"[":59,"\\":60,"]":61,"^":62,"_":63,"`":64,"a":65,"b":66,"c":67,"d":68,"e":69,"f":70,"g":71,"h":72,"i":73,"j":74,"k":75,"l":76,"m":77,"n":78,"o":79,"p":80,"q":81,"r":82,"s":83,"t":84,"u":85,"v":86,"w":87,"x":88,"y":89,"z":90,"{":91,"|":92,"}":93,"~":94,"¡":95,"¢":96,"£":97,"¤":98,"¥":99,"¦":100,"§":101,"¨":102,"©":103,"ª":104,"«":105,"¬":106,"®":107,"¯":108,"°":109,"±":110,"²":111,"³":112,"´":113,"µ":114,"¶":115,"·":116,"¸":117,"¹":118,"º":119,"»":120,"¼":121,"½":122,"¾":123,"¿":124,"À":125,"Á":126,"Â":127,"Ã":128,"Ä":129,"Å":130,"Æ":131,"Ç":132,"È":133,"É":134,"Ê":135,"Ë":136,"Ì":137,"Í":138,"Î":139,"Ï":140,"Ð":141,"Ñ":142,"Ò":143,"Ó":144,"Ô":145,"Õ":146,"Ö":147,"×":148,"Ø":149,"Ù":150,"Ú":151,"Û":152,"Ü":153,"Ý":154,"Þ":155,"ß":156,"à":157,"á":158,"â":159,"ã":160,"ä":161,"å":162,"æ":163,"ç":164,"è":165,"é":166,"ê":167,"ë":168,"ì":169,"í":170,"î":171,"ï":172,"ð":173,"ñ":174,"ò":175,"ó":176,"ô":177,"õ":178,"ö":179,"÷":180,"ø":181,"ù":182,"ú":183,"û":184,"ü":185,"ý":186,"þ":187,"ÿ":188,"Ā":189,"ā":190,"Ă":191,"ă":192,"Ą":193,"ą":194,"Ć":195,"ć":196,"Ĉ":197,"ĉ":198,"Ċ":199,"ċ":200,"Č":201,"č":202,"Ď":203,"ď":204,"Đ":205,"đ":206,"Ē":207,"ē":208,"Ĕ":209,"ĕ":210,"Ė":211,"ė":212,"Ę":213,"ę":214,"Ě":215,"ě":216,"Ĝ":217,"ĝ":218,"Ğ":219,"ğ":220,"Ġ":221,"ġ":222,"Ģ":223,"ģ":224,"Ĥ":225,"ĥ":226,"Ħ":227,"ħ":228,"Ĩ":229,"ĩ":230,"Ī":231,"ī":232,"Ĭ":233,"ĭ":234,"Į":235,"į":236,"İ":237,"ı":238,"Ĳ":239,"ĳ":240,"Ĵ":241,"ĵ":242,"Ķ":243,"ķ":244,"ĸ":245,"Ĺ":246,"ĺ":247,"Ļ":248,"ļ":249,"Ľ":250,"ľ":251,"Ŀ":252,"ŀ":253,"Ł":254,"ł":255,"Ń":256,"ĠĠ":257,"ĠĠĠĠ":258,"ĠĠĠ":259,"ĠĠĠĠĠĠĠĠ":260,"se":261,"in":262,"ĠĠĠĠĠĠĠ":263,"re":264,"on":265,"te":266,"ĊĠĠĠĠĠĠĠ":267,"ĊĠĠĠĠĠĠĠĠ":268,"or":269,"st":270,"de":271,"ĊĠĠĠ":272,"th":273,"le":274,"Ġ=":275,"lf":276,"self":277,"me":278,"al":279,"ti":280,"er":281,"Ġa":282,"Ġ'":283,"Ġi":284,"ar":285,"Ġc":286,"en":287,"ĊĠĠĠĠĠĠĠĠĠĠĠ":288,"Ġf":289,"an":290,"Ġself":291,"at":292,"ro":293,"Ġth":294,"Ġre":295,"tion":296,"',":297,"Ġ\"":298,"Ġp":299,"ur":300,"ce":301,"Ġn":302,"ge":303,"):":304,"as":305,"--":306,"Ġt":307,"Ġs":308,"##":309,"ue":310,"mp":311,"Ġo":312,"ame":313,"Ġthe":314,"Ġin":315,"ing":316,"li":317,"def":318,"ct":319,"lo":320,"pe":321,"ri":322,"ate":323,"un":324,"Ġe":325,"ĊĠĠĠĠĠĠĠĠĠĠĠĠĠĠĠĠ":326,"Ġ#":327,"di":328,"fi":329,"Ġb":330,"co":331,"ser":332,"Ġm":333,"Ġ(":334,"ch":335,"Ġw":336,"ut":337,"si":338,"ĊĊĠĠĠ":339,"Ġif":340,"\"\"":341,"()":342,"nt":343,"id":344,"ra":345,"ck":346,"Ġdef":347,"ul":348,"urn":349,"ad":350,"ter":351,"el":352,"turn":353,"name":354,"ĊĠĠĠĠĠĠĠĠĠĠĠĠĠĠĠ":355,"':":356,"ot":357,"')":358,"Ġ[":359,"('":360,"ort":361,"get":362,"__":363,"od":364,"Ġis":365,"Ġd":366,"Ġfor":367,"one":368,"ty":369,"Ġto":370,"ab":371,"Ġreturn":372,"Ġv":373,"is":374,"----":375,"Ġan":376,"ĠT":377,"Ġ0":378,"ed":379,"ode":380,"####":381,"il":382,"00":383,"up":384,"ss":385,"et":386,"pa":387,"con":388,"==":389,"it":390,"ma":391,"qu":392,"ol":393,"Ġh":394,"),":395,"test":396,"es":397,"ĊĊĠĠĠĠĠĠĠ":398,"Ġu":399,"xt":400,"\",":401,"Ġof":402,"None":403,"alue":404,"ass":405,"Ġcon":406,"sert":407,"Ġ\"\"\"":408,"set":409,"Ġst":410,"op":411,"mport":412,"Ġ1":413,"ction":414,"ke":415,"la":416,"rom":417,"']":418,"ata":419,"ĠĠĠĠĠ":420,"ĊĊ":421,"ver":422,"._":423,"der":424,"ation":425,"he":426,"ult":427,"ĠS":428,"cl":429,"))":430,"rue":431,"ve":432,"vi":433,"ment":434,"Ġ+":435,"Ġand":436,"ĠA":437,"sion":438,"ap":439,"Ġnot":440,"ile":441,"int":442,"ule":443,"Ġex":444,"ĠC":445,"Ġ-":446,"::":447,"ith":448,"ect":449,"Ġ%":450,"ror":451,"all":452,"um":453,"tr":454,"am":455,"ub":456,"eld":457,"gs":458,"['":459,"and":460,"able":461,"par":462,"ĠĠĠĠĠĠĠĠĠĠĠĠĠĠĠĠ":463,"bu":464,"Ġas":465,"type":466,"],":467,"bj":468,"Ġ{":469,"res":470,"ted":471,"lin":472,"ĠI":473,"age":474,"to":475,"ex":476,"Ġde":477,"ls":478,"assert":479,"(\"":480,"ĠF":481,"ase":482,"odule":483,"ent":484,"Ġ_":485,"Ġg":486,"Ġdi":487,"ĠNone":488,"ĊĠĠĠĠĠ":489,"ĊĠĠĠĠĠĠĠĠĠĠĠĠĠĠĠĠĠĠĠ":490,"ĠL":491,"Ġimport":492,"file":493,"ption":494,"str":495,"pro":496,"Re":497,"key":498,"Ġ2":499,"end":500,"//":501,"ta":502,"Ġor":503,"from":504,"text":505,"Ġbe":506,"Ċĉ":507,"Ġ==":508,"for":509,"ĠP":510,"Ġtest":511,"Ġco":512,"list":513,"ype":514,"path":515,"########":516,"ht":517,"--------":518,"Ġr":519,"Ġ:":520,"time":521,"Ġres":522,"ĊĠ":523,"put":524,"add":525,"ho":526,"us":527,"ig":528,"per":529,"ic":530,"\")":531,"====":532,"class":533,"='":534,"alse":535,"Ġname":536,"qual":537,"**":538,"Er":539,"ER":540,"pt":541,"Ġse":542,"Ġwith":543,"que":544,"fo":545,"ew":546,"Error":547,"out":548,"True":549,"bject":550,"sc":551,"len":552,"ield":553,"ance":554,"po":555,"ff":556,"Ġpro":557,"ault":558,"ci":559,"Ġlo":560,"ns":561,"Ġme":562,"tem":563,"ack":564,"iz":565,"])":566,"our":567,"IN":568,"mat":569,"Ġfile":570,"app":571,"ise":572,"mo":573,"Ġvalue":574,"mple":575,"data":576,"ĠD":577,"module":578,"Ġel":579,"art":580,"red":581,"\":":582,"ow":583,"wor":584,"value":585,"ĊĠĠĠĠĠĠĠĠĠĠĠĠĠĠĠĠĠĠĠĠĠĠĠĠ":586,"Ġelse":587,"ys":588,"args":589,"ly":590,"Equal":591,"fig":592,"ĠO":593,"thod":594,"che":595,"mm":596,"est":597,"ĠG":598,"tri":599,"code":600,"Ġar":601,"date":602,"ĠM":603,"line":604,"ber":605,"lic":606,"In":607,"ure":608,"sh":609,"Ġma":610,"stance":611,"Ġy":612,"quest":613,"01":614,"ON":615,"ource":616,"dd":617,"ange":618,"AT":619,"Ġstr":620,"ang":621,"reate":622,"Ġpar":623,"\"\"\"":624,"Ġun":625,"Ġthat":626,"Ġ*":627,"=\"":628,"assertEqual":629,"ctor":630,"ist":631,"mode":632,"url":633,"Ġl":634,"param":635,"Ġ__":636,"val":637,"unt":638,"ĊĠĠĠĠĠĠĠĠĠĠĠĠĠĠĠĠĠĠĠĠĠĠĠĠĠĠĠĠĠĠĠĠ":639,"rent":640,"Ġon":641,"Ġthis":642,"ag":643,"ĠW":644,"ac":645,"import":646,"py":647,"unction":648,"IT":649,"Ġ3":650,"ry":651,"Ġit":652,"ĠN":653,"ES":654,"Ġen":655,"bo":656,"pre":657,"Ġ`":658,"'),":659,"Ġra":660,"Ġ('":661,"ĠE":662,"Ġset":663,"Ġget":664,"Ġ<":665,"Ġdata":666,"fa":667,"ild":668,"ader":669,"cess":670,"Ġx":671,"rint":672,"ĊĠĠĠĠĠĠĠĠĠĠĠĠĠĠĠĠĠĠ":673,"low":674,"Ġuse":675,"om":676,"ense":677,"pon":678,"oc":679,").":680,"sp":681,"Ġch":682,"tp":683,"roup":684,"ne":685,"Ċĉĉ":686,"Ġfrom":687,"ind":688,"AR":689,"Ġ>":690,"Ġpa":691,"if":692,"atch":693,"dir":694,"ary":695,"ca":696,"db":697,"field":698,"ĠB":699,"Ġns":700,"Ġby":701,"Ġassert":702,"..":703,"Ġwh":704,"error":705,"ms":706,"ator":707,"32":708,"10":709,"ĠThe":710,"ip":711,"ssage":712,"12":713,"Con":714,"ĠTrue":715,"cept":716,"ĊĠĠĠĠĠĠĠĠĠĠĠĠĠĠĠĠĠĠĠĠĠĠĠ":717,"ĠĊĠĠĠĠĠĠĠĠĠĠĠĠĠĠĠĠĠĠ":718,"port":719,"ore":720,"__(":721,"vice":722,"ir":723,"ten":724,"und":725,"OR":726,"ener":727,"ther":728,"scri":729,"Ġtype":730,"dex":731,"ponse":732,"pec":733,"Ġout":734,"'):":735,"os":736,"Ġat":737,"ĠU":738,"read":739,"append":740,"Ġal":741,"EN":742,"jo":743,"tes":744,"ok":745,"Ġraise":746,"Ġos":747,"AL":748,"################":749,"late":750,"user":751,"rite":752,"ress":753,"Ġresult":754,"ĠĠĠĠĠĠ":755,"ĠFalse":756,"ml":757,"wa":758,"ari":759,"ument":760,"col":761,"uth":762,"========":763,"tic":764,"method":765,"ock":766,"tent":767,"Ġ@":768,"Ġlist":769,"ded":770,"fe":771,"64":772,"lib":773,"Test":774,"ET":775,"Ġ)":776,"----------------":777,"ill":778,"([":779,"ings":780,"Ġwe":781,"vent":782,"qui":783,"gn":784,"object":785,"tribu":786,"Ġare":787,"Ġ['":788,"Ġ}":789,"Ġkey":790,"Ġ{'":791,"Field":792,"log":793,"ize":794,"ds":795,"ans":796,"False":797,"icense":798,"ĠRe":799,"work":800,"heck":801,"pp":802,"ray":803,"Type":804,"Ġfunction":805,"ze":806,"dict":807,"temp":808,"Ġver":809,"ou":810,"ave":811,"ĠV":812,"ask":813,"ception":814,"info":815,"stri":816,"lay":817,"Ġmode":818,"ĊĊĠ":819,"ĠR":820,"25":821,"Ġlen":822,"ces":823,"Ġcl":824,"ec":825,"init":826,"min":827,"ren":828,"kw":829,"ble":830,"lock":831,"ext":832,"ust":833,"son":834,"count":835,"ger":836,"():":837,"ph":838,"arget":839,"ST":840,"Ġ4":841,"instance":842,"Ġcls":843,"ĠLicense":844,"11":845,"net":846,"Ġ+=":847,"den":848,"Ġdefault":849,"ree":850,"jang":851,"tions":852,"lif":853,"uld":854,".__":855,"ft":856,"tive":857,"jango":858,"Ġmodule":859,"andle":860,"mmand":861,"Ġtry":862,"comp":863,"lient":864,"ample":865,"his":866,"ant":867,"////":868,"ĠH":869,"Ġprint":870,"Ġexcept":871,"De":872,"update":873,"ses":874,"string":875,"Ġpre":876,"tain":877,"ters":878,"AN":879,"Ġso":880,"ĊĠĠĠĠĠĠĠĠĠ":881,"Ġro":882,"Ġcan":883,"umber":884,"default":885,"Ġdo":886,"mb":887,"config":888,"no":889,"size":890,"''":891,"Ġnew":892,"try":893,"back":894,"cur":895,"atus":896,"pen":897,"thon":898,"SE":899,"Ġtime":900,"Ġfield":901,"abel":902,"gin":903,"join":904,"[\"":905,"LE":906,"RE":907,"format":908,"Ġobject":909,"peci":910,"Ġwill":911,"load":912,"ght":913,"ll":914,"cal":915,"Ġelif":916,"ken":917,"uct":918,"Pro":919,"Ex":920,"://":921,"Ġuser":922,"group":923,"ape":924,"Ġ##":925,"gra":926,"opy":927,"start":928,"state":929,"Ġsho":930,"Ġpath":931,"node":932,"St":933,"UT":934,"uti":935,"'}":936,"\"]":937,"ute":938,"sed":939,"ume":940,"ost":941,"Ġ[]":942,"Ġlog":943,"own":944,"Ġoption":945,"Ġhe":946,"uc":947,"IC":948,"Ġno":949,"Ġconst":950,"ong":951,"write":952,"ĊĊĠĠĠĠĠĠĠĠĠĠĠ":953,"sub":954,"fields":955,"scription":956,"com":957,"kwargs":958,"Ġ5":959,"mage":960,"ĠThis":961,"attr":962,"ject":963,"form":964,"Ġhas":965,"04":966,"Co":967,"lement":968,"13":969,"fix":970,"Ġ\\":971,"ated":972,"main":973,"og":974,"16":975,"mber":976,"nd":977,"ww":978,"ull":979,"Ġnp":980,"create":981,"ĠIf":982,"da":983,"Ġsys":984,"Name":985,"Ġpass":986,"ariable":987,"max":988,"cor":989,"Ġ[],":990,"by":991,"models":992,"0000":993,"ery":994,"'],":995,"02":996,"gth":997,"ID":998,"tribute":999,"server":1000,"json":1001,"Get":1002,"iv":1003,"Ġline":1004,"ard":1005,"Ġall":1006,"Ġsub":1007,"gument":1008,"tial":1009,"ĠIn":1010,"Ġ**":1011,"())":1012,"Ġcomp":1013,"http":1014,"Ġversion":1015,"clu":1016,"im":1017,"core":1018,"right":1019,"99":1020,"Ġclass":1021,"Ġk":1022,"version":1023,"ee":1024,"orm":1025,"Ġle":1026,"word":1027,"CT":1028,"Ġsup":1029,"ign":1030,"Ġnode":1031,"Ġbu":1032,"Ġsh":1033,"ound":1034,"Ġ->":1035,"ime":1036,"sign":1037,"pi":1038,"čĊĠĠĠĠĠĠĠ":1039,"``":1040,".\"\"\"":1041,"vir":1042,"pected":1043,"sing":1044,"with":1045,"15":1046,"arch":1047,"Ġcol":1048,"Ch":1049,"Ġadd":1050,"lit":1051,"Ġ{}":1052,"item":1053,"ail":1054,"].":1055,"Ġrequest":1056,"ĉĉ":1057,"inter":1058,"Ġstring":1059,"arn":1060,"ual":1061,"(),":1062,"cation":1063,"md":1064,"run":1065,"Ġac":1066,"Ġcontext":1067,"ware":1068,"request":1069,"ight":1070,"lace":1071,"Ġoutput":1072,"link":1073,"check":1074,"ION":1075,"ctory":1076,"Ġshould":1077,"valid":1078,"14":1079,"index":1080,"22":1081,"34":1082,"Ġmethod":1083,"Set":1084,"18":1085,"ts":1086,"quired":1087,"loat":1088,"ory":1089,"vel":1090,"ream":1091,"RO":1092,"DE":1093,"Ġcur":1094,"base":1095,"ark":1096,"unc":1097,"ding":1098,"result":1099,"context":1100,"Ġconfig":1101,"host":1102,"\\\\":1103,"Ġcheck":1104,"'])":1105,"Ġspeci":1106,"return":1107,"</":1108,"Ġint":1109,"Value":1110,"!=":1111,"nection":1112,"obj":1113,"member":1114,"Ġpo":1115,"****":1116,"do":1117,"tle":1118,"ash":1119,"stribu":1120,"ref":1121,"parse":1122,"Add":1123,"Ġ``":1124,"Ġerror":1125,"Ġper":1126,"Ġla":1127,"čĊĠĠĠ":1128,"we":1129,"map":1130,"query":1131,"ine":1132,"'t":1133,"Ġpy":1134,"reg":1135,"Ke":1136,"Ġ!=":1137,"77":1138,"Ġval":1139,">>":1140,"ulti":1141,"pace":1142,"row":1143,"array":1144,"Ġapp":1145,"led":1146,"mit":1147,"ix":1148,"ED":1149,"sent":1150,"ak":1151,"so":1152,"33":1153,"'\\":1154,"rep":1155,"AM":1156,"TER":1157,"ich":1158,"'s":1159,"template":1160,"tings":1161,"params":1162,"Ġother":1163,"sible":1164,"20":1165,"Ġurl":1166,"19":1167,"pl":1168,"ĊĠĠĠĠĠĠĠĠĠĠĠĠĠĠĠĠĠĠĠĠĠĠĠĠĠĠĠ":1169,"oid":1170,"mpty":1171,"Ġhave":1172,"File":1173,"Ġstate":1174,"ite":1175,"django":1176,"Ġresponse":1177,"auth":1178,"AS":1179,"use":1180,"ud":1181,"Ġ/":1182,"ally":1183,"86":1184,"move":1185,"rame":1186,"ay":1187,"message":1188,"ann":1189,"ps":1190,"lob":1191,"ers":1192,"IL":1193,"24":1194,"rc":1195,"17":1196,"Key":1197,"mail":1198,"output":1199,"network":1200,"rect":1201,"Ġused":1202,"tern":1203,"Ġ|":1204,"status":1205,"ING":1206,"sta":1207,"utils":1208,"ity":1209,"input":1210,"Ġdict":1211,"Ġli":1212,"title":1213,"av":1214,"Ġparam":1215,"30":1216,"AB":1217,"Ġcreate":1218,"ax":1219,"ump":1220,"andler":1221,"new":1222,"čĊ":1223,"table":1224,"ach":1225,"sg":1226,"Ġ6":1227,"Ġisinstance":1228,"55":1229,"UR":1230,"root":1231,"tring":1232,"Ġcode":1233,"Ġbo":1234,"be":1235,"yn":1236,"man":1237,"model":1238,"tra":1239,"Ġcall":1240,"andom":1241,"Ġitem":1242,"Ġht":1243,"CH":1244,"Ġmessage":1245,"api":1246,"names":1247,"ublic":1248,"Ġargs":1249,"call":1250,"clo":1251,"().":1252,"Ġ&":1253,"AG":1254,"Ġrun":1255,"Ġinstance":1256,"80":1257,"client":1258,"cs":1259,"ffer":1260,"ĠAN":1261,"Par":1262,"Ġany":1263,"lect":1264,"Ġyou":1265,"bug":1266,"length":1267,"lete":1268,"perty":1269,"lean":1270,"At":1271,"66":1272,"arg":1273,"sys":1274,"Ġ.":1275,"35":1276,"IG":1277,"lines":1278,"Ġne":1279,"================":1280,"stru":1281,"AP":1282,"uto":1283,"Ġend":1284,"clude":1285,"uf":1286,"action":1287,"\"),":1288,"fil":1289,"fied":1290,"header":1291,"mis":1292,"UL":1293,"split":1294,"Ġreg":1295,"List":1296,"const":1297,"ations":1298,"88":1299,"Ġbase":1300,"doc":1301,"label":1302,"Ġmo":1303,"Id":1304,"Ġid":1305,"Ġ>>>":1306,"umn":1307,"org":1308,"ENT":1309,"response":1310,"IS":1311,"ran":1312,"types":1313,"Ġwhich":1314,"Ġz":1315,"ĠEx":1316,"content":1317,"Ġtext":1318,"Ġwor":1319,"rans":1320,"Ġvi":1321,"Res":1322,"ĠX":1323,"Ġinput":1324,"Ġbut":1325,"dent":1326,"En":1327,"msg":1328,"Ġnumber":1329,"rap":1330,"Ġcopy":1331,"((":1332,"'))":1333,"Ġunder":1334,"Ġj":1335,"Ġmatch":1336,"ting":1337,"Ġvalues":1338,"sk":1339,"ftware":1340,"Di":1341,"74":1342,"Ġstart":1343,"36":1344,"view":1345,"tin":1346,"Ġtarget":1347,"AC":1348,"84":1349,"Ġsource":1350,"ody":1351,"Me":1352,"cre":1353,"ved":1354,"39":1355,"sions":1356,"elp":1357,"Un":1358,"pri":1359,"html":1360,"print":1361,"ĊĠĠĠĠ":1362,"uple":1363,"service":1364,"source":1365,"Time":1366,"56":1367,"////////":1368,"Ġdescription":1369,"'.":1370,"################################":1371,"ner":1372,"Ġone":1373,"tro":1374,"target":1375,"orted":1376,"ome":1377,"To":1378,"ĠTest":1379,"Ġwhen":1380,"pv":1381,"Ġdoc":1382,"rial":1383,"ors":1384,"Mode":1385,"},":1386,"OT":1387,"ises":1388,"pack":1389,"Ġmax":1390,"var":1391,"shape":1392,"bin":1393,"urse":1394,"Ġcontain":1395,"...":1396,"not":1397,"29":1398,"fy":1399,"50":1400,"37":1401,"Ġmodel":1402,"point":1403,"comm":1404,"its":1405,"Ġheader":1406,"89":1407,"cri":1408,"face":1409,"men":1410,"cate":1411,"process":1412,"ĠQ":1413,"Ġcommand":1414,"Ġrequired":1415,"itial":1416,"ties":1417,"token":1418,"options":1419,"Ġexpected":1420,"foo":1421,"option":1422,"Ġargument":1423,"ameters":1424,"Ġrange":1425,"structor":1426,"59":1427,"tifi":1428,"ister":1429,"event":1430,"match":1431,"ĠReturn":1432,"Ġfa":1433,"Ġdate":1434,"ler":1435,"buf":1436,"Ġexp":1437,"EX":1438,"CO":1439,"NU":1440,"ANT":1441,"teger":1442,"Ġmay":1443,"--------------------------------":1444,"{'":1445,"ols":1446,"ld":1447,"ĠCon":1448,"Ġ'''":1449,"tag":1450,"Data":1451,"equal":1452,"Ġcurrent":1453,"Ġonly":1454,"Ġhttp":1455,"ager":1456,"block":1457,"ua":1458,"values":1459,"ĊĠĠĠĠĠĠĠĠĠĠĠĠĠĠĠĠĠĠĠĠĠĠĠĠĠĠĠĠĠĠĠĠĠĠĠĠĠĠĠĠ":1460,"change":1461,"objects":1462,"ature":1463,"ĠGener":1464,"27":1465,"idth":1466,"ĊĠĠĠĠĠĠĠĠĠĠĠĠ":1467,"Ġtra":1468,"IM":1469,"ments":1470,"Ġmust":1471,"irst":1472,"Ġdistribu":1473,"exp":1474,"Ġformat":1475,"Address":1476,"54":1477,"Ġindex":1478,"26":1479,"cy":1480,"TT":1481,"ures":1482,"ops":1483,"LO":1484,"feren":1485,"lection":1486,"ĠDe":1487,"ĠY":1488,"viron":1489,"open":1490,"[:":1491,"trol":1492,"000":1493,"mod":1494,"Ġchar":1495,"iven":1496,"rectory":1497,"lobal":1498,"Ġmsg":1499,"ies":1500,"filename":1501,"lan":1502,"Ġad":1503,"Ġfields":1504,"Ser":1505,"build":1506,"num":1507,"err":1508,"sor":1509,"PE":1510,"Ġoptions":1511,"PO":1512,"Se":1513,"quen":1514,"trans":1515,"std":1516,"adata":1517,"ug":1518,"Ġgener":1519,"Ġ7":1520,"tail":1521,"cted":1522,"coding":1523,"=[":1524,"icode":1525,"Ġtoken":1526,"][":1527,"indow":1528,"pass":1529,"are":1530,"command":1531,"func":1532,"bs":1533,"oo":1534,"uid":1535,"Ġup":1536,"Ra":1537,"Case":1538,"ocket":1539,"ging":1540,"filter":1541,"uration":1542,"Ġ'%":1543,"www":1544,"ep":1545,"nsor":1546,"(_":1547,"python":1548,"ĠOR":1549,"lags":1550,"Ġopen":1551,"})":1552,"Ġ--":1553,"AD":1554,"87":1555,"cr":1556,"Ġ'\\":1557,"String":1558,"Ġobj":1559,"char":1560,"Ġnames":1561,"address":1562,"Base":1563,"Ġcontent":1564,"Ġte":1565,"Ġevent":1566,"ric":1567,"Ġsize":1568,"image":1569,"Ġchange":1570,"ITH":1571,"Ġgroup":1572,"ETTER":1573,"copy":1574,"Po":1575,"olume":1576,"cord":1577,"ĠLETTER":1578,"script":1579,"ids":1580,"ain":1581,"inal":1582,"ote":1583,"Ġfiles":1584,"Ċĉĉĉ":1585,"Ġread":1586,"df":1587,"sition":1588,"the":1589,"np":1590,"Ġhost":1591,"Ġdb":1592,"function":1593,"ĠValue":1594,"Ġaction":1595,"Ar":1596,"ste":1597,"ĊĠĠĠĠĠĠĠĠĠĠĠĠĠ":1598,"Ġext":1599,"close":1600,"duct":1601,"44":1602,"ĠJ":1603,"'}),":1604,"tributes":1605,"page":1606,"mbda":1607,"ESS":1608,"float":1609,"Char":1610,"ĠPy":1611,"keys":1612,"Ġsuper":1613,"exten":1614,"mation":1615,"Ġ10":1616,"store":1617,"of":1618,"ath":1619,"Ġpl":1620,"ĠIN":1621,"Ġ]":1622,"find":1623,"utf":1624,"Ġarray":1625,"ĠAn":1626,"Ġgiven":1627,"exec":1628,"any":1629,"Ġdoes":1630,"conn":1631,"ugin":1632,"fail":1633,"ĠOF":1634,"uint":1635,"ion":1636,"cache":1637,"ili":1638,"Ġdjango":1639,"Ġinter":1640,"57":1641,"Ġfirst":1642,"09":1643,"03":1644,"HE":1645,"Attribute":1646,"void":1647,"order":1648,"DO":1649,"spec":1650,"28":1651,"xml":1652,"lot":1653,"Ġserver":1654,"Ġmore":1655,"Ġ',":1656,"mark":1657,"MP":1658,"flow":1659,"Ġ},":1660,"iter":1661,"my":1662,"ĠWITH":1663,"ĠGNU":1664,"FF":1665,"ĠSee":1666,"empty":1667,"US":1668,"cript":1669,"ists":1670,"dition":1671,"iled":1672,"','":1673,"\".":1674,"čĊĠĠĠĠĠĠĠĠĠĠĠ":1675,"Ġparent":1676,"rid":1677,"Ġupdate":1678,"gram":1679,"Ġarg":1680,"here":1681,"license":1682,"Ġmock":1683,"ĠPublic":1684,"Model":1685,"Ġvalid":1686,"Ġop":1687,"tual":1688,"Ġ(\"":1689,"06":1690,"idget":1691,"Object":1692,"reak":1693,"mary":1694,"Ġ8":1695,"ĠGeneral":1696,"ell":1697,"ML":1698,"Ġfol":1699,"bar":1700,"tity":1701,"xy":1702,"38":1703,"Ġca":1704,":`":1705,"Ġpack":1706,"fore":1707,"parent":1708,"Ġmodels":1709,"ql":1710,"ither":1711,"pos":1712,"Bu":1713,"~~":1714,"project":1715,"Node":1716,"05":1717,"uage":1718,"EST":1719,"Ġhelp":1720,"Up":1721,"ĠValueError":1722,"annel":1723,")))":1724,"files":1725,"Exception":1726,"Ġprovi":1727,"ake":1728,"imple":1729,"session":1730,"anguage":1731,"tadata":1732,"search":1733,"UN":1734,"otal":1735,"Ġwork":1736,"signed":1737,"Ġroot":1738,"child":1739,"ĊĠĠĠĠĠĠĠĠĠĠĠĠĠĠĠĠĠĠĠĠĠĠĠĠĠĠĠĠĠĠĠĠĠĠĠĠĠĠĠĠĠĠĠĠĠĠĠĠ":1740,"dit":1741,"Ġimp":1742,"\">":1743,"items":1744,"stream":1745,"TestCase":1746,"Ġuid":1747,"Ġmin":1748,"Ġ9":1749,"Ġvariable":1750,"settings":1751,"Ġtrans":1752,"old":1753,"ration":1754,"opyright":1755,"lease":1756,"debug":1757,"Ġoper":1758,"ized":1759,"cmd":1760,"ALL":1761,"Ipv":1762,"Not":1763,"pect":1764,"task":1765,"TR":1766,"Return":1767,"Ġlabel":1768,"ference":1769,"ittest":1770,"Ġback":1771,"IP":1772,"raw":1773,"xb":1774,"yle":1775,"lated":1776,"Ġpart":1777,"unk":1778,"ĊĠĠĠĠĠĠĠĠĠĠ":1779,"07":1780,"tinue":1781,"device":1782,"ormal":1783,"Ġ201":1784,"ous":1785,"sy":1786,"ameter":1787,"Ġfilename":1788,"23":1789,"Ġauth":1790,"arning":1791,"fic":1792,"izer":1793,"Ġfil":1794,"fir":1795,"fter":1796,"201":1797,"Ġparser":1798,"Check":1799,"xa":1800,"********":1801,"description":1802,"ĠReturns":1803,"ĠK":1804,"mock":1805,"Ġover":1806,"delete":1807,"Ġusing":1808,"ched":1809,"ast":1810,"Raises":1811,"xc":1812,"env":1813,"replace":1814,"assertTrue":1815,"ĊĠĠĠĠĠĠĠĠĠĠĠĠĠĠĠĠĠĠĠĠĠĠĠĠĠĠĠĠĠĠĠ":1816,"Ġtable":1817,"current":1818,"Ġelement":1819,"struct":1820,"ĠANY":1821,"67":1822,"lag":1823,"Ġform":1824,"queue":1825,")),":1826,"Ġquery":1827,"tocol":1828,"property":1829,"Ġwhile":1830,"Is":1831,"local":1832,"Ġrep":1833,"Ġimage":1834,"ning":1835,"splay":1836,"*-":1837,"sum":1838,"Ġag":1839,"200":1840,"eta":1841,"range":1842,"alled":1843,"Ġport":1844,"xe":1845,"Ġlong":1846,"Ġsy":1847,"other":1848,"ĠCo":1849,"cp":1850,"Ġnet":1851,"Ġmake":1852,"Ġblock":1853,"Ġdistributed":1854,"assertRaises":1855,"ven":1856,"lied":1857,"For":1858,"cope":1859,"ton":1860,"prefix":1861,"Ġparams":1862,"lication":1863,"CON":1864,"Ġorder":1865,"rate":1866,"Ġ\"\\":1867,"ĠCON":1868,"formation":1869,"ync":1870,"Ċĉĉĉĉ":1871,"Text":1872,"ie":1873,")]":1874,"make":1875,"69":1876,"OUT":1877,"TTP":1878,"fault":1879,"constructor":1880,"present":1881,"Ġ-*-":1882,"over":1883,"vert":1884,"ice":1885,"cls":1886,"49":1887,"ont":1888,"amples":1889,"Ġclient":1890,"lish":1891,"ib":1892,"ful":1893,"Ġq":1894,"ale":1895,"level":1896,"layer":1897,"ĠCopyright":1898,"User":1899,"Ġbuild":1900,"Ġinto":1901,"Ġeither":1902,"ifi":1903,"rix":1904,"ative":1905,"Fa":1906,"ui":1907,"swith":1908,"abled":1909,"ĠUn":1910,"Ġfound":1911,"ive":1912,"strip":1913,"DI":1914,"ped":1915,"asses":1916,"how":1917,"The":1918,"Ġexception":1919,"ARR":1920,"Ġattr":1921,"ITY":1922,"Ġcomm":1923,"Ġeach":1924,"trib":1925,"Ġ200":1926,"resource":1927,"Ġwithout":1928,"Ġneed":1929,"Ġcase":1930,"Tag":1931,"post":1932,"ĠSt":1933,"ATIN":1934,"pop":1935,"atab":1936,"Ġsee":1937,"OP":1938,"go":1939,"licy":1940,"ression":1941,"ined":1942,"frame":1943,"No":1944,"Ac":1945,"onent":1946,"Ġtag":1947,"ĠLATIN":1948,"xf":1949,"Ġconnection":1950,"ATE":1951,"ĠAr":1952,"Ġmodi":1953,"quence":1954,"number":1955,"ats":1956,"ract":1957,"ating":1958,"').":1959,"100":1960,"sup":1961,"Ġrow":1962,"atabase":1963,"Ġfe":1964,"79":1965,"He":1966,"Ġnum":1967,"Cl":1968,"ogle":1969,"Ġcor":1970,"exception":1971,"course":1972,"Ġlib":1973,"util":1974,"variable":1975,"FI":1976,"box":1977,"Ġtemplate":1978,"Ġpri":1979,"Ġcontinue":1980,"CL":1981,"Ġchild":1982,"lank":1983,"stall":1984,"location":1985,"static":1986,"Ġ'.":1987,"[-":1988,"has":1989,"Ġwas":1990,"AME":1991,"uccess":1992,"ĊĠĠĠĠĠĠĠĠĠĠĠĠĠĠĠĠĠĠĠĠĠ":1993,"Ġ'/":1994,"Ġyield":1995,"ries":1996,"off":1997,"rary":1998,"Ġgra":1999,"ick":2000,"Col":2001,"ĠSo":2002,"less":2003,"Ġstatus":2004,"Ġsome":2005,"48":2006,"ARRANT":2007,"Ġtuple":2008,"ĠWARRANT":2009,"58":2010,"Ġsame":2011,"ility":2012,"Ġspecified":2013,"compile":2014,"tails":2015,"uble":2016,"Request":2017,"ĠPython":2018,"last":2019,".,":2020,"ify":2021,"Ġjson":2022,"')])":2023,"meta":2024,"21":2025,"ffe":2026,"wo":2027,"Config":2028,"ique":2029,"body":2030,"(*":2031,"Ġsoftware":2032,"du":2033,"Ġpage":2034,"Ġfollow":2035,"08":2036,"mt":2037,"gener":2038,"ustom":2039,"Ġallow":2040,"Lo":2041,"Path":2042,"ĊĠĠ":2043,"Ġter":2044,"uture":2045,"river":2046,"ĠYou":2047,"account":2048,"ĊĠĠĠĠĠĠĠĠĠĠĠĠĠĠ":2049,"Ġlogging":2050,"pk":2051,"true":2052,"Ġdest":2053,"MA":2054,"cc":2055,"igh":2056,"ailable":2057,"Ġresults":2058,"Ġbreak":2059,"password":2060,"Ġlast":2061,"expected":2062,"width":2063,"part":2064,"virtual":2065,"Ġthen":2066,"cond":2067,"patch":2068,"Ġfloat":2069,"Ġsign":2070,"Ġ\"%":2071,"ization":2072,"Ġresource":2073,"Ġkwargs":2074,"bit":2075,"td":2076,"verse":2077,"FA":2078,"ĊĠĠĠĠĠĠĠĠĠĠĠĠĠĠĠĠĠĠĠĠĠĠĠĠĠ":2079,"TH":2080,"Item":2081,"Ġdirectory":2082,"datetime":2083,"ush":2084,"umpy":2085,"Ġpos":2086,"parser":2087,"Ġcmd":2088,"CE":2089,"IO":2090,"ublish":2091,"ultip":2092,"atures":2093,"argument":2094,"chema":2095,"elper":2096,"Ġ[\"":2097,"nown":2098,"TY":2099,"IB":2100,"abs":2101,"loc":2102,"req":2103,"ĠFor":2104,"connection":2105,"mon":2106,"resh":2107,"element":2108,"emp":2109,"down":2110,"VER":2111,"Ġprocess":2112,"admin":2113,"76":2114,"Ptr":2115,"ĊĠĠĠĠĠĠĠĠĠĠĠĠĠĠĠĠĠ":2116,"save":2117,"only":2118,"top":2119,"Ġtask":2120,"ticle":2121,".\"":2122,"email":2123,"site":2124,"Ġ''":2125,"ĊĠĠĠĠĠĠ":2126,"thing":2127,"orage":2128,"abric":2129,"distribu":2130,"now":2131,"ersion":2132,"uch":2133,"attern":2134,"wer":2135,"ĠWe":2136,"mote":2137,"Ġreturned":2138,"headers":2139,"atform":2140,"Dict":2141,"Ġlink":2142,"encode":2143,"perties":2144,"gex":2145,"Ġexec":2146,"ternal":2147,"HT":2148,"older":2149,"Ġdel":2150,"ĊĠĠĠĠĠĠĠĠĠĠĠĠĠĠĠĠĠĠĠĠ":2151,"Ġdtype":2152,"Ġdis":2153,"xx":2154,"Ġbool":2155,"Ġ],":2156,"']],":2157,"aa":2158,"ati":2159,"UP":2160,"FT":2161,"Element":2162,"Ġnext":2163,"src":2164,"ĠPro":2165,"Ġlevel":2166,"40":2167,"remove":2168,"Ġman":2169,"ctionary":2170,"serial":2171,"deo":2172,"Ġqu":2173,"mal":2174,"By":2175,"Call":2176,"cf":2177,"Ġexten":2178,"ready":2179,"graph":2180,"ord":2181,"65":2182,"CharField":2183,"next":2184,"Ġax":2185,"ĠException":2186,"Ġexist":2187,"ride":2188,"]:":2189,"conf":2190,"wh":2191,"31":2192,"sets":2193,"75":2194,"Ġyour":2195,"Ġrandom":2196,"Ġdatetime":2197,"Ġparse":2198,"Ġproject":2199,"rule":2200,"Vi":2201,"Ġsettings":2202,"Ġret":2203,"Out":2204,"ateg":2205,"ution":2206,"xd":2207,"Bo":2208,"Message":2209,"ear":2210,"Ġwri":2211,"lation":2212,"Ġdocument":2213,"okup":2214,"Ġshape":2215,"Ġmark":2216,"Ġses":2217,"Ġwrite":2218,"tests":2219,"bose":2220,"sit":2221,"Ġnon":2222,"State":2223,"exit":2224,"Ġattribute":2225,"GL":2226,"hash":2227,"OL":2228,"(?":2229,"penden":2230,"sa":2231,"handler":2232,"ULT":2233,"ĊĊĠĠĠĠĠĠĠĠĠĠĠĠĠĠĠ":2234,"ĠPar":2235,"Ġab":2236,"\"))":2237,"ular":2238,"cho":2239,"Ġprogram":2240,"ias":2241,"connect":2242,"Ġdevice":2243,"unsigned":2244,"bool":2245,"first":2246,"cer":2247,"Ġload":2248,"Ġsp":2249,"mission":2250,"Ġobjects":2251,"PI":2252,"system":2253,"send":2254,"\"],":2255,"Ġinfo":2256,"Ġlocal":2257,"('\\":2258,"60":2259,"42":2260,"domain":2261,"oper":2262,"Ġ...":2263,"del":2264,"cle":2265,"\",\"":2266,"'},":2267,"gen":2268,"Ġold":2269,"til":2270,"dtype":2271,"quire":2272,"ILITY":2273,"Ġregister":2274,"direct":2275,"AA":2276,"78":2277,"'].":2278,"yp":2279,"à¤":2280,"ĠIS":2281,"zer":2282,"pache":2283,"cket":2284,"ants":2285,"ĊĠĠĠĠĊĠĠĠ":2286,"Ġaddress":2287,"Ġglobal":2288,"Ġav":2289,"ĠSoftware":2290,"Ġsupport":2291,"ink":2292,"pool":2293,"ART":2294,"Ġtests":2295,"ĠTO":2296,"dis":2297,")):":2298,"255":2299,"SS":2300,"column":2301,"uri":2302,"derr":2303,"Ġlimit":2304,"Pack":2305,"Ġorig":2306,"null":2307,"io":2308,"Ġvoid":2309,"ves":2310,"aster":2311,"Ġge":2312,"`.":2313,"environ":2314,"ported":2315,"sis":2316,"vision":2317,"Ġ),":2318,"fs":2319,"Size":2320,"////////////////":2321,"45":2322,"Ġheaders":2323,"fn":2324,"lower":2325,"color":2326,"fl":2327,"QU":2328,"Ġerr":2329,"common":2330,"Ġoff":2331,"Ġrule":2332,"68":2333,"ĠTHE":2334,"ates":2335,"('/":2336,"Ġthere":2337,"Ġcount":2338,"NAME":2339,"stack":2340,"Ġmap":2341,"Ġfind":2342,"metadata":2343,"'''":2344,"Ġtensor":2345,"umns":2346,"tx":2347,"Ġhere":2348,"\"):":2349,"tree":2350,"Ġsession":2351,"pc":2352,"Count":2353,"Info":2354,"random":2355,"Ġ>=":2356,"cale":2357,"ometry":2358,"stamp":2359,"Ġ,":2360,"ingle":2361,"tainer":2362,"round":2363,"Response":2364,"]],":2365,"Ġpython":2366,"etch":2367,"Ġarguments":2368,"rapper":2369,"ices":2370,"Qu":2371,"ĠGet":2372,"entry":2373,"dev":2374,"ceiv":2375,"Ġpoint":2376,"Module":2377,"ĊĊĊĠĠĠ":2378,"stop":2379,"ial":2380,"ĠFOR":2381,"Ġwhere":2382,"licenses":2383,"show":2384,"Ġlines":2385,"Ġsk":2386,"Ġinclude":2387,"Ġtemp":2388,"ĠSM":2389,"Event":2390,"dia":2391,"vo":2392,"rs":2393,"bytes":2394,"Man":2395,"Ġbody":2396,"Ġentry":2397,"Pre":2398,"Ġits":2399,"Ġlambda":2400,"ĠAND":2401,"Ġextra":2402,"Ġprefix":2403,"Comp":2404,"volume":2405,"ector":2406,"related":2407,"fin":2408,"vate":2409,"Ġafter":2410,"ha":2411,"fer":2412,"uster":2413,"Ġcom":2414,"nodes":2415,"select":2416,"47":2417,"Ġstd":2418,"Ġthan":2419,"Ġ{\"":2420,"mpl":2421,"All":2422,"job":2423,"txt":2424,"can":2425,"85":2426,"required":2427,"ĠWITHOUT":2428,"Ġhandle":2429,"KE":2430,"RL":2431,"ĊĠĠĠĠĠĠĠĠĠĠĠĠĠĠĠĠĠĠĠĠĠĠ":2432,"dentifi":2433,"ĠType":2434,"Ġservice":2435,"Ġdetails":2436,"Tra":2437,"Ns":2438,"Al":2439,"{}":2440,"side":2441,"act":2442,"future":2443,"exists":2444,"Log":2445,"Ġmain":2446,")/":2447,"Group":2448,"Ġfail":2449,"Ġopt":2450,"Ġright":2451,"ctions":2452,"ish":2453,"Ġact":2454,"Ġview":2455,"Ġimple":2456,"Ġfilter":2457,"=%":2458,"]))":2459,"startswith":2460,"Handler":2461,"Ġthread":2462,"Ġclo":2463,"sen":2464,"Ġlate":2465,"46":2466,"Ġcr":2467,"Ġcho":2468,"flags":2469,"ba":2470,"utton":2471,"EXT":2472,"username":2473,"methods":2474,"Ġ'-":2475,"ĠĠĠĠĠĠĠĠĠĠĠĠĠĠĠĠĠĠĠĠĠĠĠĠĠĠĠĠĠĠĠĠ":2476,"ABILITY":2477,"Ġimplied":2478,"handle":2479,"Net":2480,"53":2481,"sl":2482,"XX":2483,"asic":2484,"served":2485,"================================":2486,"style":2487,"Ġspecific":2488,"changed":2489,"ĊĠĠĠĠĠĠĠĠĠĠĠĠĠĠĠĠĠĠĠĠĠĠĠĠĠĠĠĠ":2490,"package":2491,"ights":2492,"An":2493,"ĠSet":2494,"auto":2495,"ultiple":2496,"cen":2497,"Ġshow":2498,"Create":2499,"blank":2500,"bb":2501,"author":2502,"wit":2503,"CK":2504,"Ġpassword":2505,"Date":2506,"LIC":2507,"Ġ..":2508,"mented":2509,"Device":2510,"ĊĠĠĠĠĠĠĠĠĠĠĠĠĠĠĠĠĠĠĠĠĠĠĠĠĠĠĠĠĠĠĠĠĠĠĠ":2511,"Ġlogger":2512,"Ġ'_":2513,"PRO":2514,"pol":2515,"ĠSMALL":2516,"Ġbin":2517,"Ġcourse":2518,"Ġgetattr":2519,"web":2520,"ux":2521,"]),":2522,"her":2523,"VE":2524,"ceived":2525,"execute":2526,"rag":2527,"52":2528,"Ġreturns":2529,"Ġmat":2530,"_(":2531,"From":2532,"UB":2533,"96":2534,"><":2535,"Ġinitial":2536,"tools":2537,"Ġtitle":2538,"Ġindi":2539,"Run":2540,"ĊĊĠĠĠĠĠ":2541,"nap":2542,"Class":2543,"Ġbefore":2544,"']['":2545,"case":2546,"Ġstream":2547,"alog":2548,"Ġtrue":2549,"errors":2550,"als":2551,"Ġerrors":2552,"Le":2553,"missions":2554,"alid":2555,"Ġinformation":2556,"Ġconn":2557,"product":2558,"Ġpackage":2559,"Ġ'__":2560,"({":2561,"Ġfunc":2562,"IES":2563,"82":2564,"']:":2565,"TO":2566,"Header":2567,"TypeId":2568,"Ġfollowing":2569,"ker":2570,"CC":2571,"mory":2572,"wait":2573,"ĊĠĠĠĠĠĠĠĠĠĠĠĠĠĠĠĠĠĠĠĠĠĠĠĠĠĠ":2574,"Ġalready":2575,"97":2576,"uite":2577,"cies":2578,"eval":2579,"uuid":2580,"Ġcache":2581,"Ġlength":2582,"Ġfin":2583,",'":2584,"Do":2585,"Des":2586,"gr":2587,"very":2588,"Ġenv":2589,"except":2590,"rt":2591,"fd":2592,"timeout":2593,"ATION":2594,"---":2595,"ORT":2596,"Ġalso":2597,"gine":2598,"Ġauto":2599,"Ġdictionary":2600,"dep":2601,"Option":2602,"ditional":2603,"results":2604,"wise":2605,"ĠKey":2606,"Ġob":2607,"assi":2608,"manager":2609,"Sub":2610,"vm":2611,"Ġsta":2612,"include":2613,"dest":2614,"Ġfull":2615,"ensor":2616,"ABLE":2617,"aly":2618,"zone":2619,"Inter":2620,"Ġgo":2621,"ĠAnsible":2622,"Per":2623,"ĠString":2624,"proto":2625,"mer":2626,"arnings":2627,"čĊĠĠĠĠĠĠĠĠĠĠĠĠĠĠĠ":2628,"mask":2629,"Ġfabric":2630,"Ġhash":2631,"URL":2632,"Ġparameters":2633,"groups":2634,"94":2635,"Ġho":2636,"Ġlanguage":2637,"space":2638,"UM":2639,"App":2640,"ron":2641,"APIT":2642,"ĠFound":2643,"Ġencoding":2644,"scope":2645,"Ġign":2646,"usr":2647,"Ġreq":2648,"Ġunicode":2649,"Ġ'<":2650,"cause":2651,"ical":2652,"Ġtimeout":2653,"ĠAdd":2654,"ide":2655,"Ġsystem":2656,"Ġdep":2657,"83":2658,".')":2659,"ason":2660,"Ġass":2661,"Sh":2662,"tk":2663,"mi":2664,"')],":2665,"ERR":2666,"cimal":2667,"Ġ\"_":2668,"APITAL":2669,"ĠCheck":2670,"thread":2671,"Ġ$":2672,"LI":2673,"Integer":2674,"rop":2675,"win":2676,"]]":2677,"ĠCAPITAL":2678,"MO":2679,"Ġnumpy":2680,"Index":2681,"active":2682,"register":2683,"SI":2684,".\")":2685,"dist":2686,"=(":2687,"Ġhasattr":2688,":%":2689,"Ġsample":2690,"oding":2691,"oreign":2692,"coder":2693,"example":2694,"Ġ<=":2695,"-\\":2696,"addr":2697,"Default":2698,"uter":2699,"pr":2700,"Ġempty":2701,"Ġstruct":2702,"stdout":2703,"termin":2704,"mbol":2705,"book":2706,"FOR":2707,"decode":2708,"NS":2709,"90":2710,"TYPE":2711,"imum":2712,"Py":2713,"Content":2714,"nel":2715,"Ġoptional":2716,"Ġfl":2717,"plugin":2718,"Th":2719,"95":2720,"gg":2721,"repr":2722,"let":2723,"dump":2724,"Ġparameter":2725,"Packet":2726,"Ġinst":2727,"ĊĠĠĠĠĠĠĠĠĊĠĠĠĠĠĠĠ":2728,"Ġvar":2729,"ini":2730,"comple":2731,"access":2732,"]['":2733,"lambda":2734,"Ġcharac":2735,");":2736,"Ġcreated":2737,"buffer":2738,"Ġus":2739,"Ġiter":2740,"Ġprovided":2741,"ĊĊĉ":2742,"offset":2743,"assed":2744,"prot":2745,"Ġtop":2746,"initial":2747,"Ġxml":2748,"PL":2749,"ators":2750,"ATA":2751,"ĠFoundation":2752,"ng":2753,"Ġsearch":2754,"Ġeven":2755,"af":2756,"Ġbeen":2757,"setup":2758,"skip":2759,"70":2760,"rec":2761,"Ġids":2762,"Ġcolumn":2763,"cli":2764,"This":2765,"63":2766,"Ad":2767,"View":2768,"EM":2769,"Ġdiffe":2770,"Ġap":2771,"sv":2772,"Variable":2773,"Ġutf":2774,"channel":2775,"conds":2776,"Ġrecord":2777,"place":2778,"ĠIt":2779,"Ġpublish":2780,"ait":2781,"shot":2782,"Ġbytes":2783,"Ġnetwork":2784,"control":2785,"most":2786,"Ġframe":2787,")[":2788,"62":2789,"ĠCreate":2790,"tmp":2791,"section":2792,"Ġdon":2793,"FAULT":2794,".*":2795,"unittest":2796,"Ġcalled":2797,"plot":2798,"ĠCh":2799,"olute":2800,"(-":2801,"play":2802,"Ġcoding":2803,"exc":2804,"PAT":2805,"Callback":2806,"]+":2807,"Ġavailable":2808,"long":2809,"Ġ&',":2810,"Ġmodify":2811,"ĠName":2812,"Ġremove":2813,"andard":2814,"entic":2815,"ĠWh":2816,"Auth":2817,"Ġ%(":2818,"72":2819,"lected":2820,"Form":2821,"As":2822,"IONS":2823,"43":2824,"Dis":2825,"NO":2826,"roll":2827,"contrib":2828,"ef":2829,"IGHT":2830,"Ġcomple":2831,"ĠNot":2832,"Ġtf":2833,"train":2834,"81":2835,"else":2836,"Ġcre":2837,"Ġsocket":2838,"Ġlike":2839,"%(":2840,"dentifier":2841,"Parser":2842,").__":2843,"Or":2844,"ĠNOT":2845,"DB":2846,"RA":2847,"Str":2848,"Ġsingle":2849,"Ġ'--":2850,"ĠURL":2851,"tep":2852,"Ġabs":2853,"ĠAt":2854,"ince":2855,"HTTP":2856,"ENSE":2857,"oken":2858,"https":2859,"Ġvariables":2860,"full":2861,")\\":2862,"Ġcommon":2863,"TEST":2864,"non":2865,"cd":2866,"Ġfree":2867,"ĠFree":2868,"51":2869,"ĠID":2870,"eb":2871,"Reg":2872,"ob":2873,"cap":2874,"uffix":2875,"ĠUser":2876,"Ġtwo":2877,"~~~~":2878,"Ġaccess":2879,"extend":2880,"Ġdomain":2881,"Ġunittest":2882,"Ġkeys":2883,"Ġscript":2884,"ways":2885,"login":2886,"okie":2887,"classes":2888,"Result":2889,"CP":2890,"Ref":2891,"ĊĠĠĠĠĠĠĠĠĠĠĠĠĠĠĠĠĠĠĠĠĠĠĠĠĠĠĠĠĠ":2892,"Ġexample":2893,"cb":2894,"Ġterms":2895,"Ġchanged":2896,"Ġconfiguration":2897,"73":2898,"ared":2899,"ĠAll":2900,"EL":2901,"tab":2902,"Ġren":2903,"gor":2904,"98":2905,"tim":2906,"Ġbet":2907,"ored":2908,"Ġlocation":2909,"BU":2910,"extra":2911,"batch":2912,"profile":2913,"pha":2914,"press":2915,"GG":2916,"Ġdist":2917,"display":2918,"INT":2919,"vironment":2920,"logger":2921,"vider":2922,"total":2923,")\"":2924,"Tests":2925,"step":2926,"Factory":2927,"Ġsrc":2928,"Ġdisplay":2929,"like":2930,"cast":2931,"ics":2932,"Ġaccount":2933,"Ġwant":2934,"Ġdir":2935,"vars":2936,"Ġsa":2937,":]":2938,"Imple":2939,"QL":2940,"(['":2941,"92":2942,"Ġtypes":2943,"CR":2944,"Ġlater":2945,"cent":2946,"assertEquals":2947,"Ġ100":2948,"ift":2949,"linen":2950,"Ġjust":2951,"Ġbecause":2952,"41":2953,"Ġrepresent":2954,"Ġstatic":2955,"Map":2956,"></":2957,"čĊčĊĠĠĠ":2958,"Output":2959,"tuple":2960,"(\\":2961,"AGE":2962,"Ġpost":2963,"utable":2964,"ranch":2965,"global":2966,"tera":2967,"=['":2968,"tags":2969,"GET":2970,"vious":2971,"used":2972,"Ġnull":2973,"Ġitems":2974,"unicode":2975,"61":2976,"day":2977,"les":2978,"HO":2979,"Source":2980,"orig":2981,"WAR":2982,"ling":2983,"Ġref":2984,"Ġthey":2985,"Ġapi":2986,"attributes":2987,"Manager":2988,"wd":2989,"ĠWARRANTIES":2990,"encoding":2991,"opt":2992,"head":2993,"oreignKey":2994,"dered":2995,"idx":2996,"Ġuseful":2997,"Context":2998,"čĊč":2999,"Ġinteger":3000,"Ġ--------":3001,"Ġmy":3002,"fc":3003,"Ġattributes":3004,"End":3005,"dio":3006,"With":3007,"binary":3008,"sql":3009,"':{'":3010,"dle":3011,"Ġserial":3012,"sitive":3013,"tered":3014,"div":3015,"Ġhandler":3016,"speci":3017,"bot":3018,"cry":3019,"argv":3020,"cts":3021,"DIR":3022,"napshot":3023,"tils":3024,"NESS":3025,"lative":3026,"STR":3027,"diff":3028,"multi":3029,"ilder":3030,"Ġemail":3031,"Ġpassed":3032,"ĠArgs":3033,"Code":3034,"Ġcontaining":3035,"ACT":3036,"lice":3037,"ULAR":3038,"left":3039,"Loc":3040,"Client":3041,"va":3042,"uff":3043,"ĊĠĠĠĠĠĠĠĠĠĠĠĠĠĠĠĠĠĠĠĠĠĠĠĠĠĠĠĠĠĠ":3044,"ystem":3045,"ged":3046,"Lay":3047,"Checker":3048,"Line":3049,"Ġdatabase":3050,"emplate":3051,"Ġta":3052,"MS":3053,"stead":3054,"Ġfalse":3055,"iddle":3056,",-":3057,"callback":3058,"record":3059,"################################################################":3060,"ITNESS":3061,"Ġthem":3062,"Ġnow":3063,"POSE":3064,"zip":3065,"Ġraw":3066,"ERCH":3067,"Ġ</":3068,"ERCHANT":3069,"report":3070,"'})":3071,">\\":3072,"Ġ[])":3073,"aded":3074,"istr":3075,"ĠPART":3076,"tach":3077,"KEY":3078,"ward":3079,"ugh":3080,"hether":3081,"chedule":3082,"stderr":3083,"ĠPUR":3084,"Ġresp":3085,"Ġreceived":3086,"Ġ\"\"":3087,"mac":3088,"Ġsum":3089,"driver":3090,"ĠNo":3091,"ĠFITNESS":3092,"real":3093,"coun":3094,"oci":3095,"****************":3096,"limit":3097,"google":3098,"ACK":3099,"OS":3100,"ĠHTTP":3101,"Ġmethods":3102,"CONF":3103,"ĠPURPOSE":3104,"Ġdebug":3105,"ICULAR":3106,"ĠZ":3107,"__,":3108,"ween":3109,"Command":3110,"witch":3111,"modules":3112,"lex":3113,"Ġaxis":3114,"ĠPARTICULAR":3115,"scriptor":3116,"mentation":3117,"clean":3118,"cul":3119,"Server":3120,"ĠMERCHANT":3121,"vs":3122,"Ġtree":3123,"position":3124,"yload":3125,"={":3126,"axis":3127,"tensor":3128,"93":3129,".',":3130,"_,":3131,";\":":3132,"/>":3133,".\\":3134,"\"])":3135,"delta":3136,"licit":3137,"ditions":3138,"Gener":3139,"Ġinstead":3140,"Ġtotal":3141,"Block":3142,"FL":3143,"Ġ12":3144,"Ġdelete":3145,"ĠTypeError":3146,"ĊĠĠĠĠĠĠĠĠĠĠĠĠĠĠĠĠĠĠĠĠĠĠĠĠĠĠĠĠĠĠĠĠĠĠĠĠĠĠĠ":3147,"words":3148,"/%":3149,"pid":3150,"tom":3151,"Ġuint":3152,"cated":3153,"ntax":3154,"ination":3155,"raint":3156,"double":3157,"Ġspec":3158,"known":3159,"Frame":3160,"ĠImport":3161,"Start":3162,"ually":3163,"Ġcolor":3164,"pu":3165,"Len":3166,"Service":3167,"#!":3168,"ĠMERCHANTABILITY":3169,"ERROR":3170,")'":3171,"71":3172,"component":3173,"install":3174,"abc":3175,"insert":3176,"DS":3177,"Ġexc":3178,"features":3179,"Ġalong":3180,"Ġdoesn":3181,"Ġsuccess":3182,"fake":3183,"Simple":3184,"policy":3185,"Table":3186,"git":3187,"Trans":3188,"entries":3189,"ForeignKey":3190,"sort":3191,"IND":3192,"Ġ16":3193,"ĠMe":3194,"bility":3195,")',":3196,"invalid":3197,"ends":3198,"gest":3199,"stats":3200,"Ġmis":3201,"rough":3202,"IGN":3203,"VAL":3204,"Input":3205,"indows":3206,"ĠOption":3207,"brow":3208,"pendencies":3209,"uk":3210,"Ġcorrect":3211,"\"\\":3212,"Ġcal":3213,"parameters":3214,"attribute":3215,"olean":3216,"Ġinterface":3217,"MM":3218,"ending":3219,"dirs":3220,"release":3221,"Ġsend":3222,"children":3223,"Ġdown":3224,"Connection":3225,"annot":3226,"Query":3227,"Ġtensorflow":3228,"Ġtri":3229,"FO":3230,"Ġnamespace":3231,"ĠOpen":3232,"Ġcallback":3233,"SH":3234,"unique":3235,"imp":3236,"gate":3237,"Ġsure":3238,"see":3239,"ĠSe":3240,"Int":3241,"Ġansible":3242,"PATH":3243,"Instance":3244,"Ġcollection":3245,"platform":3246,"Ġdefined":3247,"unit":3248,"tf":3249,"keep":3250,"namespace":3251,"({'":3252,"sure":3253,"ĠTODO":3254,"raph":3255,"dential":3256,"desc":3257,"ik":3258,"Number":3259,"Ġ'',":3260,"ĠAPI":3261,"apping":3262,"CA":3263,"Token":3264,"ĠDE":3265,"interface":3266,"Ġpublished":3267,"Ġoffset":3268,"fit":3269,"added":3270,"sample":3271,"Ġsetup":3272,"000000":3273,"ases":3274,"sport":3275,"Page":3276,"ĠInc":3277,"Ġipv":3278,"SER":3279,"proxy":3280,"war":3281,"properties":3282,"lector":3283,"Read":3284,"Ġflags":3285,"Ġ\"/":3286,"dot":3287,"attrs":3288,"br":3289,"Ġattrs":3290,"opts":3291,"ret":3292,"Ġnormal":3293,"tical":3294,"-%":3295,"Stream":3296,"ured":3297,"CS":3298,"Buffer":3299,"sm":3300,"Ġvolume":3301,"normal":3302,"ĊĠĠĠĠĠĠĠĠĠĠĠĠĠĠĠĠĠĠĠĠĠĠĠĠĠĠĠĠĠĠĠĠĠ":3303,"Ġcontrol":3304,"Ġflag":3305,"allow":3306,"Ġtrace":3307,"gt":3308,"sue":3309,"Action":3310,"PR":3311,"ello":3312,"gress":3313,"On":3314,"Iter":3315,"way":3316,"pb":3317,"metri":3318,"ship":3319,"iod":3320,"sec":3321,"ĠĠĠĠĠĠĠĠĠĠĠ":3322,"ummy":3323,"Ġproperty":3324,"And":3325,"Ġstrings":3326,"primary":3327,"91":3328,"Ġextension":3329,"Ġweb":3330,"cluded":3331,"Ġobtain":3332,"height":3333,"assertFalse":3334,"Ġbuffer":3335,"Ġproduct":3336,"Clo":3337,"tify":3338,"Widget":3339,"quires":3340,"Ġmetadata":3341,")*":3342,"Ġgraph":3343,"olve":3344,"bl":3345,"Mock":3346,"olution":3347,"tition":3348,"comment":3349,"Ġreplace":3350,"forms":3351,"render":3352,"Version":3353,"Ġsave":3354,"Ġsorted":3355,"samples":3356,"compute":3357,"Auto":3358,"OF":3359,"curity":3360,"Ġcer":3361,"ose":3362,"Ġreal":3363,"Invalid":3364,"Ġdifferent":3365,"Ġbinary":3366,"Ġti":3367,"__)":3368,"rel":3369,"ttp":3370,"Ġpatch":3371,"Ġskip":3372,"ueue":3373,"loy":3374,"ube":3375,"Ġverbose":3376,"SON":3377,"ĠRun":3378,"Ġoriginal":3379,"Ġnodes":3380,"#!/":3381,"Ġbetween":3382,"UD":3383,"Ġip":3384,"cat":3385,"istry":3386,"ja":3387,"Ġ20":3388,"ges":3389,"ĠNote":3390,"Sta":3391,"wri":3392,"ValueError":3393,"ĠVersion":3394,"bove":3395,"Meta":3396,"score":3397,"sive":3398,"Mac":3399,"Ġgeometry":3400,"pattern":3401,"duce":3402,"year":3403,"Ġmeta":3404,"Ġfailed":3405,"columns":3406,"Returns":3407,"ĠWARRANTY":3408,"bind":3409,"ntry":3410,"Ġexisting":3411,"ĠLO":3412,"Ġmod":3413,"Ġsequence":3414,"Ġchoices":3415,"Ġim":3416,"repo":3417,"blem":3418,"velo":3419,"Ġsection":3420,"Ġposition":3421,"loader":3422,"Ġfunctions":3423,"des":3424,"Build":3425,"ixed":3426,":\\":3427,"Point":3428,"Ġwar":3429,"()[":3430,"messages":3431,"Ġabove":3432,"aries":3433,"Ġusername":3434,"extension":3435,"assertIs":3436,"help":3437,"points":3438,"Ġoperation":3439,"widget":3440,"reen":3441,"math":3442,"Ġpermissions":3443,"ily":3444,"Ġ>',":3445,"trace":3446,"ĠEn":3447,"AY":3448,"Ġstyle":3449,"socket":3450,"Ġpresent":3451,"HER":3452,"cheme":3453,"tificate":3454,"public":3455,"Fe":3456,"ategory":3457,"iltin":3458,"oto":3459,"(__":3460,"Ġ):":3461,"Ġwidth":3462,"weight":3463,"Ġstack":3464,"IME":3465,"Of":3466,"scale":3467,"Ġeval":3468,"lineno":3469,"distribute":3470,"\").":3471,"DEFAULT":3472,"Ġmath":3473,"Ġ[[":3474,"dirname":3475,"Hash":3476,"fication":3477,"ero":3478,"many":3479,"!!":3480,"Function":3481,"Ġzip":3482,"Ġadded":3483,"Format":3484,"Ġmon":3485,"Ġsimple":3486,"esca":3487,"'][":3488,"safe":3489,"Valid":3490,"Image":3491,"ĠPer":3492,"Child":3493,"storage":3494,"Ġexists":3495,"leted":3496,"gorith":3497,"Process":3498,"Ġsecond":3499,"Implemented":3500,"wn":3501,"validate":3502,"Ġactual":3503,"Ġselect":3504,"ested":3505,"ĠDO":3506,"Ġdisable":3507,"('%":3508,"Ġcontains":3509,"Ġmulti":3510,"udent":3511,"labels":3512,"quote":3513,"Down":3514,"ĠĠĠĠĠĠĠĠĠ":3515,"FORM":3516,"Ġhtml":3517,"ilter":3518,"sw":3519,"Ġthese":3520,"ĊĠĠĠĠĠĠĠĠĠĠĠĠĠĠĠĠĠĠĠĠĠĠĠĠĠĠĠĠĠĠĠĠĠĠ":3521,"Ġbatch":3522,"ĠBase":3523,">'":3524,"stract":3525,"sq":3526,"called":3527,"gl":3528,"Ġtmp":3529,".'":3530,"ĠIP":3531,"Box":3532,"categ":3533,"Write":3534,"fetch":3535,"raises":3536,"Ġcustom":3537,"oolean":3538,"moved":3539,"na":3540,"cpu":3541,"Ġforce":3542,"commit":3543,"Ġalways":3544,"ĠImportError":3545,"Ġ\"'":3546,"\");":3547,"tice":3548,"serialize":3549,"Ġgenerate":3550,"iddleware":3551,"ession":3552,"CI":3553,"document":3554,"Ġlibrary":3555,"bound":3556,"tool":3557,"indi":3558,"`,":3559,"Ġtrain":3560,"gh":3561,"ĠSO":3562,"ĠGL":3563,"idden":3564,"INE":3565,"iler":3566,"Dir":3567,"Ġ-.":3568,"ws":3569,"\"}":3570,"Serial":3571,"dim":3572,"sted":3573,"Ġapplic":3574,"Ġwriting":3575,"board":3576,"hy":3577,"application":3578,"SION":3579,"ank":3580,"xff":3581,"ECT":3582,"dt":3583,"clear":3584,"Iterator":3585,"Ġ}}":3586,"lip":3587,"scape":3588,"Ġplugin":3589,"ĠAuth":3590,"ĠRes":3591,"none":3592,"OK":3593,"med":3594,"Ġabout":3595,"js":3596,"SET":3597,"Ġwarnings":3598,"ĠComp":3599,"container":3600,"Found":3601,"Ġleft":3602,"urls":3603,"Ġredistribute":3604,"zy":3605,"----------------------------------------------------------------":3606,"00000000":3607,"Ġmarker":3608,"eff":3609,"seq":3610,"ĠPRO":3611,"short":3612,"ĠsetUp":3613,"leep":3614,"inst":3615,"ability":3616,"ins":3617,"Ġwait":3618,"directory":3619,"alias":3620,"ire":3621,"Ġreport":3622,"Ġchannel":3623,"ae":3624,"ĠPO":3625,"ĠCol":3626,"collection":3627,"Ġlabels":3628,"schema":3629,"Ca":3630,"Ġstop":3631,"Oper":3632,"Ġclean":3633,"Ġmatrix":3634,"ME":3635,"liance":3636,"pping":3637,"{{":3638,"sume":3639,"loads":3640,"tc":3641,"matrix":3642,"vals":3643,"Ġpacket":3644,"ĠUse":3645,"Vector":3646,"(\"%":3647,"Ġlook":3648,"AND":3649,"Ġstep":3650,"ĠEX":3651,"verage":3652,"Ġmember":3653,"('-":3654,"Be":3655,"Ġmask":3656,"PORT":3657,"Protocol":3658,"Ġreference":3659,"ĊĠĠĠĠĠĠĠĠĠĠĠĠĠĠĠĠĠĠĠĠĠĠĠĠĠĠĠĠĠĠĠĠĠĠĠĠ":3660,"Ġhope":3661,"ipe":3662,"Ġmultiple":3663,"hook":3664,"mbed":3665,"Ġ((":3666,"ctype":3667,"ĠApache":3668,"variables":3669,"mean":3670,"language":3671,"]*":3672,"Ver":3673,"Ġ%}":3674,"dentity":3675,"helper":3676,"sity":3677,"/',":3678,"Ġabsolute":3679,"Ġ\".":3680,"Ġgover":3681,"(**":3682,"uce":3683,"expr":3684,"ross":3685,"Ġignore":3686,"ZE":3687,"cision":3688,"gnu":3689,"city":3690,"bd":3691,"cords":3692,"SD":3693,"Status":3694,"WARE":3695,"Ġbyte":3696,"Property":3697,"ĠĠĠĠĠĠĠĠĠĠ":3698,"=_":3699,"medi":3700,"lem":3701,"factory":3702,"mul":3703,"Ġconditions":3704,"WN":3705,"__':":3706,"users":3707,"Ġpol":3708,"ĠAs":3709,"category":3710,"inputs":3711,"Ġwarran":3712,"={'":3713,"Pl":3714,"Ġsplit":3715,"Mo":3716,"Control":3717,"Ġcommands":3718,"FLAG":3719,"Ġenume":3720,"Ġcomment":3721,"video":3722,"actions":3723,"indent":3724,"olver":3725,"######":3726,"TE":3727,"Ġchunk":3728,"modi":3729,"raise":3730,"ORD":3731,"Ġpick":3732,"tems":3733,"Ġenvironment":3734,"API":3735,"stat":3736,"Queue":3737,"precated":3738,"ĠSer":3739,"cret":3740,"folder":3741,"success":3742,"Ġconf":3743,"classmethod":3744,"istory":3745,"ines":3746,"Ġunique":3747,"Ġsupported":3748,"this":3749,"Ġwarranty":3750,"span":3751,"Ġencode":3752,"Ġfinally":3753,"_.":3754,"ASS":3755,"role":3756,"ĠDi":3757,"ĠDefault":3758,"rand":3759,"atter":3760,"License":3761,"Ġtags":3762,"YR":3763,"warning":3764,"escape":3765,"dient":3766,"Method":3767,"Doc":3768,"Ġbeing":3769,"spa":3770,"paths":3771,"hould":3772,"edit":3773,"ixin":3774,"Ġwhether":3775,"bc":3776,"ĠĠĠĠĠĠĠĠĠĠĠĠ":3777,"Ġutils":3778,";\\":3779,"provider":3780,"253":3781,"ĠLI":3782,"lav":3783,"ĠNotImplemented":3784,"ULL":3785,"ude":3786,"Ġconstructor":3787,"Ġmessages":3788,"voice":3789,"export":3790,"USER":3791,"Ġpaths":3792,"tification":3793,"Ġdocumentation":3794,"Ġrender":3795,"apache":3796,"heet":3797,"reed":3798,"ctx":3799,"Ġ::":3800,"rations":3801,"dentials":3802,"Ġpk":3803,"tivi":3804,"Ġgen":3805,"window":3806,"usage":3807,"vari":3808,"sole":3809,"ROM":3810,"gorithm":3811,"ava":3812,"loop":3813,"ĠFile":3814,"']),":3815,"Ġsix":3816,"FILE":3817,"Ġconver":3818,"Ġarch":3819,"ĠList":3820,"regex":3821,"ority":3822,"wrap":3823,"Ġ_(\"":3824,"grid":3825,"ĠKIND":3826,"enabled":3827,"Ġ})":3828,"particle":3829,"RES":3830,"Ġrepo":3831,"verbose":3832,"dc":3833,"Link":3834,"ĠLo":3835,"Array":3836,"Ġreverse":3837,"rows":3838,"Ġstdout":3839,"sym":3840,"DIT":3841,"Ġ[(":3842,"INTER":3843,"au":3844,"gle":3845,"remote":3846,"Ġrelative":3847,"Wifi":3848,"Warning":3849,"Ġeq":3850,"Ġpattern":3851,"pair":3852,"respon":3853,"lint":3854,"')),":3855,"operator":3856,"ould":3857,"tex":3858,"rer":3859,"rency":3860,"Tensor":3861,"utes":3862,"Ro":3863,"Cur":3864,"Ġboth":3865,"Ġinvalid":3866,"IX":3867,"ĠTh":3868,"Socket":3869,"sentry":3870,"feed":3871,"Ġ\",":3872,"Ġsubprocess":3873,"Ġenumerate":3874,"Ġsql":3875,"TEXT":3876,"Ġstore":3877,"Ġfeature":3878,"Ġrunning":3879,"mk":3880,"INGS":3881,"ĠAttribute":3882,"Random":3883,"icro":3884,"track":3885,"Ġ\"<":3886,"button":3887,"DF":3888,"matic":3889,"cell":3890,"ower":3891,"lookup":3892,"sd":3893,"'[":3894,"fier":3895,"Dele":3896,"ĠParameters":3897,"ĠRa":3898,"partner":3899,"Entry":3900,"IntegerField":3901,"END":3902,"tz":3903,"')},":3904,"Ġ\"-":3905,"Ġjob":3906,"Ġinstall":3907,"engine":3908,"ĠLicensed":3909,"false":3910,"rest":3911,"256":3912,"Ġcannot":3913,"Ġbound":3914,"Ġdiff":3915,"convert":3916,"If":3917,"ĠData":3918,"css":3919,"Ġcursor":3920,"Trace":3921,"protocol":3922,"LECT":3923,"exceptions":3924,"Ġfoo":3925,"DateTime":3926,"IR":3927,"ground":3928,"pointer":3929,"ĠMo":3930,"Ġcomponent":3931,"Ġtheir":3932,"128":3933,"]])":3934,"aml":3935,"tran":3936,"cursor":3937,"Ġwidget":3938,"greg":3939,"MET":3940,"rf":3941,"URE":3942,"Ġ'#":3943,"ifest":3944,"Ġph":3945,"Access":3946,"Multi":3947,")])":3948,"########################################################################":3949,"MPL":3950,"zh":3951,"Ġmig":3952,"tains":3953,"timestamp":3954,"Ġwould":3955,"mount":3956,"Ġconvert":3957,"reset":3958,"ĠQt":3959,"ERS":3960,"LICENSE":3961,"Ġpossible":3962,"Ġwho":3963,"Ġapplicable":3964,"Ġexpression":3965,"created":3966,"Ġsince":3967,"orter":3968,"imat":3969,"Ġcontainer":3970,"ĠGo":3971,"some":3972,"BO":3973,"Ġshort":3974,"GR":3975,"cii":3976,"roid":3977,"COL":3978,"ĠWhen":3979,"Ġcf":3980,"[:,":3981,"Ġremote":3982,"ancel":3983,"'re":3984,"\\'":3985,"ANG":3986,"Tree":3987,"Ġed":3988,"System":3989,"force":3990,"Ġvideo":3991,"Ġclasses":3992,"lain":3993,"iases":3994,"cla":3995,"{%":3996,"fp":3997,"DATA":3998,"Ġopts":3999,"()),":4000,"Change":4001,"Ġclose":4002,"Parse":4003,"Ġmer":4004,"ĠTo":4005,"ritems":4006,"ving":4007,"Ġelements":4008,"=',":4009,"ourse":4010,"Ġurllib":4011,"Ġthrough":4012,"PUT":4013,"PAR":4014,"Met":4015,"AttributeValue":4016,"rection":4017,"Ġ_('":4018,"ynam":4019,"Ġagain":4020,"Ġcap":4021,"=-":4022,"ferences":4023,"Ġstri":4024,"lear":4025,"Ġfake":4026,"Ġctx":4027,"FTWARE":4028,"SM":4029,"POST":4030,"Resource":4031,"disk":4032,"ites":4033,"pendency":4034,"Ġassoci":4035,"Ġevery":4036,"defined":4037,"([[":4038,"uring":4039,"light":4040,"sequence":4041,"(%":4042,"Ġsess":4043,"Ġ['_":4044,"Ġlayer":4045,"Ġgenerated":4046,"ICE":4047,"Ġrelated":4048,"ithub":4049,"warn":4050,"Ġdf":4051,"Ġwhat":4052,"////////////////////////////////":4053,"agent":4054,"ordin":4055,"Ġexpress":4056,"Ġmove":4057,"support":4058,"()))":4059,"img":4060,"Ġsc":4061,"crement":4062,"eeded":4063,"CG":4064,"'\"":4065,"Ġsuch":4066,"ĠKeyError":4067,"ĠOn":4068,"Ġsort":4069,"pose":4070,"mig":4071,"Ġcontents":4072,"ping":4073,"Ġ'')":4074,"tten":4075,"Container":4076,"eq":4077,"urllib":4078,"Ġbased":4079,"assertIn":4080,"sten":4081,"Boolean":4082,"constant":4083,"Ġdistribution":4084,"acy":4085,"uation":4086,"bad":4087,"irtual":4088,"Many":4089,"Ġfp":4090,"cloud":4091,"Ġpair":4092,"sig":4093,"ĠConfig":4094,"adding":4095,"pare":4096,"hex":4097,"Param":4098,"Ġ----":4099,"Types":4100,"entication":4101,"ĠHT":4102,"agement":4103,"Ġproto":4104,"umeric":4105,"vector":4106,"Ġvalidate":4107,"indices":4108,"inition":4109,"Ġcharacters":4110,".%":4111,"Ġok":4112,"Ġprotocol":4113,"Ġ15":4114,"integer":4115,"lt":4116,"Color":4117,"SO":4118,"Ġ11":4119,"descriptor":4120,"ACE":4121,"čĊĉ":4122,"Ġbuf":4123,"Ġmissing":4124,"Ġdirect":4125,"Ġqueue":4126,"sep":4127,"cfg":4128,"simple":4129,"endswith":4130,"Filter":4131,"Ġauthor":4132,"master":4133,"BA":4134,"inja":4135,"Ġprevious":4136,"Ġunit":4137,"UTH":4138,"utor":4139,"\"].":4140,"ĠSOFTWARE":4141,"upper":4142,"Ġ----------":4143,"optional":4144,"Ġrequests":4145,"async":4146,"ĠBAS":4147,"sid":4148,"ORS":4149,"DITIONS":4150,"Ġcompliance":4151,"Update":4152,"Ġinputs":4153,"Ġour":4154,"ĠMake":4155,"Ġops":4156,"([])":4157,"ĠUnless":4158,"lang":4159,"ĠAR":4160,"FC":4161,"gger":4162,"ĠHTML":4163,"elif":4164,"Ġspecify":4165,"blocks":4166,"xture":4167,"RECT":4168,"Ġvm":4169,"leg":4170,"ness":4171,"Ġvari":4172,"flag":4173,"six":4174,"lim":4175,"++":4176,"Ġschema":4177,"Ġhttps":4178,"Ġlaw":4179,"dumps":4180,"parts":4181,"Ġoperator":4182,"0001":4183,"Ġparts":4184,"apter":4185,")\",":4186,"UE":4187,"atom":4188,"PT":4189,"Ġlicense":4190,"tivity":4191,"Ġplace":4192,"Ġagreed":4193,"Ġscope":4194,"127":4195,"views":4196,"ãģ":4197,"pg":4198,"criptor":4199,"enter":4200,"cluster":4201,",\\":4202,"Ġpool":4203,"Ġlimitations":4204,"Ġinit":4205,">',":4206,"ĠBASIS":4207,"generate":4208,"layout":4209,"Ġgoverning":4210,"marker":4211,"Ġhow":4212,"hs":4213,"found":4214,"Ġkeep":4215,"Ġsepar":4216,"ĠCONDITIONS":4217,"center":4218,"home":4219,"EC":4220,"ĠTH":4221,"PC":4222,"Ġapplication":4223,"Ġdone":4224,"PRE":4225,"ĠDo":4226,"PER":4227,"ĊĠĠĠĠĠĠĠĠĠĠĠĠĠĠĠĠĠĠĠĠĠĠĠĠĠĠĠĠĠĠĠĠĠĠĠĠĠ":4228,"custom":4229,"uplic":4230,"Template":4231,"Pa":4232,"Ġ30":4233,"cessed":4234,"undle":4235,"ĠOr":4236,"Ġlookup":4237,"Qt":4238,"private":4239,"Ge":4240,"uted":4241,"Ġfinal":4242,"Ġdefaults":4243,"Ġoc":4244,"Ġnotice":4245,"font":4246,"ignore":4247,"Ġcopyright":4248,"download":4249,"zeros":4250,"SA":4251,"Ġkeyword":4252,"ctories":4253,"SG":4254,"vation":4255,"Mixin":4256,"Ġotherwise":4257,",)":4258,"Button":4259,"Ġsetting":4260,"Max":4261,"zero":4262,"Ġjoin":4263,"ffero":4264,"ĠAffero":4265,"ssl":4266,"Interface":4267,"$',":4268,"hostname":4269,"Ġdouble":4270,"lavor":4271,"dn":4272,"filters":4273,"Ġ[('":4274,"gative":4275,"Failed":4276,"Target":4277,"Ġoverride":4278,"ĠNotImplementedError":4279,"Ġidx":4280,"ĠAttributeError":4281,"Ġexpect":4282,"MAX":4283,"interval":4284,"paces":4285,"Ġappro":4286,"Ġpylint":4287,"123":4288,"'^":4289,"CLUD":4290,"ars":4291,"aved":4292,"Ġcould":4293,"fici":4294,"umb":4295,"enable":4296,"lass":4297,"Ġplatform":4298,"Open":4299,"]',":4300,"Window":4301,"holder":4302,"Ġker":4303,"nan":4304,"SIZE":4305,"Ġgenerator":4306,"RAW":4307,"rl":4308,"faces":4309,"Ġnamed":4310,"Descriptor":4311,"gy":4312,"Port":4313,"Label":4314,"STAT":4315,"basic":4316,"XML":4317,"ĊĠĠĠĠĠĠĠĠĠĠĠĠĠĠĠĠĠĠĠĠĠĠĠĠĠĠĠĠĠĠĠĠĠĠĠĠĠĠ":4318,"ĠAS":4319,"Ġ\"--":4320,"1234":4321,"defaults":4322,"Sy":4323,"Gui":4324,"Ġfn":4325,"wifi":4326,"Ġcorrespon":4327,"Ġdesc":4328,"Ġ14":4329,"itor":4330,"Ġ>>":4331,"IE":4332,"TypeError":4333,"Ġsen":4334,">\"":4335,"Ġrv":4336,"Ġ32":4337,"ragment":4338,"Ġdisc":4339,"Ġway":4340,"čĊčĊĠĠĠĠĠĠĠ":4341,"library":4342,"__.":4343,"ä¸":4344,"``.":4345,"Ġneeded":4346,"Ġest":4347,"zz":4348,"Ġword":4349,"Ġcluster":4350,"NetDevice":4351,"come":4352,"Ġwindow":4353,"rpc":4354,"Ġloc":4355,"mbols":4356,"resses":4357,"loss":4358,"layers":4359,")],":4360,"bf":4361,"Ġcolumns":4362,"Ġindent":4363,"akes":4364,"require":4365,"Ġ(%":4366,"ĠBO":4367,"events":4368,"Ġhref":4369,"Ġallowed":4370,"ascii":4371,"IMIT":4372,"Com":4373,"eek":4374,"second":4375,"ĠPo":4376,"Exten":4377,"AutoField":4378,"CLUDING":4379,"iver":4380,"BUG":4381,"Ġproperties":4382,"Ġsm":4383,"ĠST":4384,"IPT":4385,"Ġoutfile":4386,"ished":4387,"ĊĊĊ":4388,"Ġsim":4389,"Ġusers":4390,"fr":4391,"ARY":4392,"amo":4393,"RefCount":4394,"One":4395,"Ġ\"__":4396,"']]],":4397,"almost":4398,"after":4399,"cm":4400,"spatch":4401,"Ġmemory":4402,"ĠOS":4403,"intern":4404,"commands":4405,"LOCK":4406,"contents":4407,"Ġdimen":4408,"Ġrequire":4409,"ĠSH":4410,"nn":4411,"Ġmapping":4412,"Ġconstant":4413,"byte":4414,"override":4415,"security":4416,"Ġmetri":4417,"ĠOTH":4418,"chine":4419,"ĠMock":4420,"sparse":4421,"Ġpid":4422,"rules":4423,"DEL":4424,"havi":4425,"Ġtrack":4426,"ITE":4427,"aterial":4428,"chain":4429,"arge":4430,"ĠAd":4431,"ĠCONTR":4432,"Helper":4433,"Session":4434,"resources":4435,"Thread":4436,"Cache":4437,"Ġloop":4438,"[:-":4439,"Ġuses":4440,"expand":4441,"ĠFROM":4442,"reference":4443,"Ġretri":4444,"feature":4445,"ier":4446,"SimpleRefCount":4447,"DES":4448,"route":4449,"Ġmatches":4450,"\\\"":4451,"lat":4452,"Ġwithin":4453,"Ġinstances":4454,"Logger":4455,"done":4456,"enerp":4457,"Ġexit":4458,"herit":4459,"dar":4460,"CRIPT":4461,"pytest":4462,"creen":4463,"LL":4464,"Ġstandard":4465,"anti":4466,"outputs":4467,"alpha":4468,"prop":4469,"menu":4470,"reverse":4471,"Ġequal":4472,"ĠAc":4473,"Ġevents":4474,"ĠGoogle":4475,"Task":4476,"cing":4477,"alt":4478,"MENT":4479,"reshold":4480,"Ġrights":4481,"month":4482,"ĠĠĠĠĠĠĠĠĠĠĠĠĠĠĠ":4483,"titem":4484,"mitted":4485,"Match":4486,"Ġdt":4487,"Ġplt":4488,"ea":4489,"ĊĠĠĠĠĠĠĠĠĠĠĠĠĠĠĠĠĠĠĠĠĠĠĠĠĠĠĠĠĠĠĠĠĠĠĠĠĠĠĠĠĠĠĠ":4490,"Network":4491,"bi":4492,"Ġchanges":4493,"exist":4494,"ynamic":4495,"....":4496,"Ġmac":4497,"fill":4498,"Ġreason":4499,"rtype":4500,"Ġpoints":4501,"entity":4502,"Ġusage":4503,"tokens":4504,"Ġ'$":4505,"ventory":4506,"\"'":4507,"times":4508,"where":4509,"pick":4510,"suffix":4511,"Deleter":4512,"Ġforms":4513,"Ġimplementation":4514,"seconds":4515,"ĠText":4516,"('--":4517,"resp":4518,"ĠĠĠĠĠĠĠĠĠĠĠĠĠ":4519,"ĠError":4520,"PY":4521,"quested":4522,"grade":4523,"png":4524,"correct":4525,"Ġcompute":4526,"Exp":4527,"Ġcharacter":4528,"Ġcoun":4529,"tected":4530,"INFO":4531,"sleep":4532,"__()":4533,"Ġfeatures":4534,"sertion":4535,"peed":4536,"\\.":4537,"tio":4538,"Ġspecial":4539,"Back":4540,"ified":4541,"``,":4542,"Ġdisk":4543,"liter":4544,"Ġtargets":4545,"Ġbit":4546,"Column":4547,"ones":4548,"virt":4549,"Ġcallable":4550,"region":4551,"tact":4552,"sources":4553,"VENT":4554,"lots":4555,"dom":4556,"Ġpredi":4557,"Options":4558,"------------":4559,"Ġpop":4560,"available":4561,"Pri":4562,"Ġdetermin":4563,"DR":4564,"Ġparsed":4565,"Ġproxy":4566,"MB":4567,"Ġassociated":4568,"Ġheight":4569,"browse":4570,"rot":4571,"Ġinv":4572,"Ġanother":4573,"cols":4574,"Ġpublic":4575,"CHE":4576,"choices":4577,"Graph":4578,"named":4579,"ĠAl":4580,"='',":4581,"(\"\\":4582,"ached":4583,"mar":4584,"unded":4585,"UTE":4586,"001":4587,"Ġupdated":4588,",\"":4589,"Wrapper":4590,"loaded":4591,"Ġpolicy":4592,"angle":4593,"ighb":4594,"iso":4595,"Ġblank":4596,"owner":4597,"alle":4598,"rp":4599,"pkg":4600,"Ġspace":4601,"_)":4602,"media":4603,"chunk":4604,"##############################################################################":4605,"amount":4606,"sitory":4607,"components":4608,"NOT":4609,"note":4610,"iteritems":4611,"VERSION":4612,"Ġpytest":4613,"links":4614,"Ġmean":4615,"dat":4616,"soft":4617,"Ġrest":4618,"Op":4619,"backend":4620,"Ġmodules":4621,"UU":4622,"bucket":4623,"free":4624,"Length":4625,"DateTimeField":4626,"company":4627,"Ġadmin":4628,"Ġdivision":4629,"cores":4630,"depth":4631,"amily":4632,"istration":4633,"Ġtoo":4634,"Ġstderr":4635,"nected":4636,"Ġcategory":4637,"unct":4638,"staticmethod":4639,"define":4640,",))":4641,"Ġentity":4642,"learn":4643,"Ġreserved":4644,"Ġtokens":4645,"rence":4646,"tenant":4647,"rank":4648,"Min":4649,"Ġlock":4650,"az":4651,"Ġgroups":4652,"signal":4653,"ons":4654,"uting":4655,"IF":4656,"SQL":4657,"ĠCOP":4658,"database":4659,"Ġredirect":4660,"Ġinte":4661,"'\",":4662,"aris":4663,"gments":4664,"New":4665,"Ġscale":4666,"NotFound":4667,"Ġrel":4668,"SY":4669,"Level":4670,"Ċĉĉĉĉĉ":4671,"internal":4672,"Ġsignal":4673,"ia":4674,"fb":4675,"Ġlogin":4676,"icon":4677,"Ġsym":4678,"generator":4679,"EG":4680,"Ġbar":4681,"]):":4682,"Ġrelease":4683,"targets":4684,"Edit":4685,"assertAll":4686,"proc":4687,"ĠMan":4688,"unch":4689,"Ġprofile":4690,"Ġlet":4691,"ĠXML":4692,"ĠApp":4693,"branch":4694,"ptr":4695,"Ġseconds":4696,"Ġzero":4697,"Ne":4698,"Empty":4699,"Ġrepr":4700,"USE":4701,"Ġactive":4702,"ĠTime":4703,"Ġoutputs":4704,"summary":4705,",),":4706,"tty":4707,"ork":4708,"Range":4709,"Sup":4710,"transform":4711,"verify":4712,"Ġrules":4713,"numpy":4714,"stant":4715,"rong":4716,"ffff":4717,"Python":4718,"Ġrole":4719,"Parameter":4720,"Ġhigh":4721,"Ġadditional":4722,"shift":4723,"Close":4724,"(('":4725,"atrix":4726,"atible":4727,"Lib":4728,"Ġaccept":4729,"Ġrows":4730,"secret":4731,"scal":4732,"Ġfeed":4733,"Bit":4734,"[^":4735,"cert":4736,"csv":4737,"Order":4738,"Ġsuffix":4739,"gment":4740,"____":4741,"struction":4742,"/>.":4743,"Ġtool":4744,"mapping":4745,"amma":4746,"Ġwin":4747,"Impl":4748,"payload":4749,"Ġmost":4750,"wards":4751,"missing":4752,"snapshot":4753,"eve":4754,"vas":4755,"Ġenable":4756,"docs":4757,"configuration":4758,"Sto":4759,"ĠHttp":4760,"Project":4761,"lap":4762,"publish":4763,"just":4764,".\",":4765,"Ġfilters":4766,"uate":4767,"strict":4768,"(\"/":4769,"Ġsite":4770,"gits":4771,"Ġescape":4772,"Ġtx":4773,"ipv":4774,"Ġkw":4775,"testing":4776,"price":4777,"factor":4778,"ĠBu":4779,"single":4780,"Ġoccur":4781,"images":4782,"sibility":4783,"ĠRequest":4784,"break":4785,"+'":4786,"mpt":4787,"Ġgot":4788,"Ġdataset":4789,"question":4790,"norm":4791,"super":4792,"Prefix":4793,"Ġ])":4794,"osv":4795,"ros":4796,"analy":4797,"Layout":4798,"Ġvia":4799,"raft":4800,"7701":4801,"cription":4802,"ilt":4803,"ĠSub":4804,"/'":4805,"logging":4806,"FORMAT":4807,"ransport":4808,"assertNot":4809,"Ġcfg":4810,"Ġentries":4811,"pn":4812,"roy":4813,"rays":4814,"ĠUSE":4815,"Ġwrap":4816,"ONE":4817,"Ġwx":4818,"Ġrc":4819,"itespace":4820,"ĠValid":4821,"anel":4822,"atterns":4823,"drop":4824,"ĠNO":4825,"Ġitera":4826,"('<":4827,"ĠMA":4828,"Ġremoved":4829,"8859":4830,"FLAGS":4831,"abspath":4832,"Ġoprot":4833,"Ġautomatic":4834,"sha":4835,"Struct":4836,"Ġpe":4837,"Ġapply":4838,"Ġneeds":4839,"ĠJSON":4840,"imator":4841,"urnal":4842,"Ġexport":4843,"memory":4844,"Policy":4845,"basename":4846,"Ġsent":4847,"rb":4848,"Ġdecode":4849,"nu":4850,"Stack":4851,"(\"\"\"":4852,"ansible":4853,"Ġhead":4854,"secs":4855,"*.":4856,"framework":4857,"Exec":4858,"SELECT":4859,"ĠNumber":4860,"Byte":4861,"Ġ-=":4862,"}}":4863,"asis":4864,"Ġbackend":4865,"Ġdev":4866,"atten":4867,"Ġensure":4868,"enum":4869,"Ġcop":4870,"boolean":4871,"rectories":4872,"Ġ\"\",":4873,"Fail":4874,"Ġbad":4875,"redirect":4876,"Ġmatching":4877,"alk":4878,"ĠOptional":4879,"Admin":4880,":'":4881,"Ġcalls":4882,"complete":4883,"Ġutil":4884,"ĠBy":4885,"Ġpayload":4886,"Ġstorage":4887,"ĠQgs":4888,"ural":4889,"Ġcomplete":4890,"click":4891,"failed":4892,"101":4893,"ence":4894,"Ġselected":4895,"MIN":4896,"Ġregion":4897,"Ġwere":4898,"days":4899,"ĠMode":4900,"internet":4901,"Ġgyp":4902,"Ġinstalled":4903,"inf":4904,"ĠVariable":4905,"čĊĠĠĠĠĠĠĠĠĠĠĠĠĠĠĠĠĠĠĠ":4906,"Ġconnect":4907,"gb":4908,"serve":4909,"Ġmeans":4910,"Ġverify":4911,"moves":4912,"Ġtimestamp":4913,"__.__":4914,"Ġraised":4915,"weights":4916,"Ġcell":4917,"Ġindices":4918,"~~~~~~~~":4919,"gether":4920,"expect":4921,"Ġfolder":4922,"cluding":4923,"LIST":4924,"clar":4925,"Ġhand":4926,"gp":4927,"Ġkind":4928,"SL":4929,"boot":4930,"Ġweights":4931,"ĠMy":4932,"Sec":4933,"culate":4934,"Information":4935,"Proxy":4936,"ough":4937,"IAL":4938,"flush":4939,"Sign":4940,"using":4941,"Ext":4942,"HTML":4943,"Ġ13":4944,"Ġxrange":4945,"supported":4946,"LOG":4947,"YPE":4948,"ĠUp":4949,"tdc":4950,"ĊĊĠĠĠĠĠĠĠĠĠĠĠĠĠĠĠĠĠĠĠ":4951,"Ġenum":4952,"AttributeChecker":4953,"Ġperson":4954,"Ġsignature":4955,"logy":4956,"isted":4957,"arguments":4958,".)":4959,"ĠĊĠĠĠĠĠĠĠ":4960,"TIME":4961,"GE":4962,"FN":4963,"rev":4964,"Host":4965,"Wri":4966,"Ġexceptions":4967,"currency":4968,"orary":4969,"_%":4970,"ISE":4971,"distribution":4972,"Ġsupp":4973,"Ftdc":4974,"Ġwrapper":4975,"Ġissue":4976,"wner":4977,"Ġchildren":4978,"pted":4979,"DU":4980,"states":4981,"bal":4982,"Ġpermission":4983,"outfile":4984,"SV":4985,"Pass":4986,"Ġans":4987,"}\\":4988,"kernel":4989,"pipe":4990,"fabric":4991,")).":4992,"uit":4993,"nb":4994,"router":4995,"ĠColumn":4996,"crypt":4997,"apply":4998,"202":4999,"dic":5000,"Ġ//":5001,"Ġmany":5002,"Layer":5003,"ĠIO":5004,"extract":5005,"hello":5006,"Ġinternal":5007,"9999":5008,"Ġ{})":5009,"ĠOTHER":5010,"tist":5011,"dr":5012,"ĠNode":5013,"DefaultDeleter":5014,"arted":5015,"yg":5016,"vid":5017,"Ket":5018,"tl":5019,"Ġstats":5020,"actor":5021,"Ġprovider":5022,"Ġfont":5023,"ĠField":5024,"ĠIMP":5025,":`.":5026,"Ġexplicit":5027,"repe":5028,"wrapper":5029,"dl":5030,"github":5031,"xn":5032,"Ġcpu":5033,"rappe":5034,"WS":5035,"BooleanField":5036,"begin":5037,"assign":5038,"Application":5039,"attach":5040,"Ġ'{":5041,"Ġdst":5042,"original":5043,"ĠReg":5044,"fmt":5045,"Ġboolean":5046,"facts":5047,"Ġsafe":5048,"Ġ64":5049,"mediate":5050,"ĠLOG":5051,"Ġiprot":5052,"Ġcli":5053,"tasks":5054,"Ġcollections":5055,"ĠSIGN":5056,"ferred":5057,"Sp":5058,"ĠLIC":5059,"Flow":5060,"Plugin":5061,"Ġprimary":5062,"road":5063,"upload":5064,"Rule":5065,"yes":5066,"PS":5067,"vis":5068,"sheet":5069,"ĠEN":5070,"Ġprev":5071,"Unit":5072,"UBLE":5073,"Ġrequires":5074,"lity":5075,"big":5076,"Ġloader":5077,"VICE":5078,"sqrt":5079,"tities":5080,"Enum":5081,"Ġ))":5082,"Reference":5083,"Ġbelow":5084,"cheduler":5085,"mpy":5086,"details":5087,"ĠBo":5088,"once":5089,"Ġassign":5090,"kind":5091,"inx":5092,"../":5093,"final":5094,"choice":5095,"sock":5096,"game":5097,"rq":5098,"ĠCO":5099,"FE":5100,"ĊĠĠĠĠĠĠĠĠĠĠĠĠĠĠĠĠĠĠĠĠĠĠĠĠĠĠĠĠĠĠĠĠĠĠĠĠĠĠĠĠĠ":5101,"(',":5102,"Regex":5103,"OLD":5104,"sur":5105,"()]":5106,"cv":5107,"Ġuri":5108,"()):":5109,"FIL":5110,"ressed":5111,"Ġbehavi":5112,"ĠLICENSE":5113,"Ġkernel":5114,"pure":5115,"Copy":5116,"Ġlower":5117,"->":5118,"dst":5119,"Ġincluded":5120,"'d":5121,"\":\"":5122,"OPT":5123,"Ġdependencies":5124,"term":5125,"Ġavoid":5126,"MD":5127,"Ġprob":5128,"ado":5129,")(":5130,"Ġalpha":5131,"poch":5132,"Ġuntil":5133,"ficient":5134,"linux":5135,"Float":5136,"Ġplot":5137,"ĠLIMIT":5138,"Ġstill":5139,"plan":5140,"à¥":5141,"Metadata":5142,"lack":5143,"Mask":5144,"Ġshutil":5145,"hosts":5146,"Ġperform":5147,"Ġidentifier":5148,"park":5149,"Comm":5150,"\"\",":5151,"gettext":5152,"SC":5153,"packages":5154,"symbol":5155,"']))":5156,"Tool":5157,"So":5158,"external":5159,"Ġproblem":5160,"anner":5161,"Ġalias":5162,"Ġregex":5163,"Ġstatement":5164,"metric":5165,"Ġopenerp":5166,"sn":5167,"didate":5168,"(?:":5169,"ium":5170,"Ġsupports":5171,"WORD":5172,"edge":5173,"Ġtab":5174,"('.":5175,"seed":5176,"LIED":5177,"Ġsparse":5178,"ĠDAM":5179,"hour":5180,"apps":5181,"before":5182,"RandomVariable":5183,"quot":5184,"ĠĠĠĠĠĠĠĠĠĠĠĠĠĠ":5185,"sync":5186,"unknown":5187,"404":5188,"registry":5189,"Ġtraceback":5190,"period":5191,"FIX":5192,"zen":5193,"kip":5194,"Off":5195,"DC":5196,"cos":5197,"Ġ1000":5198,"duction":5199,"Ġpipe":5200,"Argument":5201,"rowser":5202,"ports":5203,"Ġthose":5204,"cessary":5205,"sim":5206,"+\"":5207,"udio":5208,"unic":5209,"Ġleast":5210,"HEAD":5211,"Ġ60":5212,"Ġ<<":5213,"dataset":5214,"timeError":5215,"inner":5216,"reshape":5217,"Ġshell":5218,"Ġattemp":5219,"ony":5220,"wisted":5221,"Ġnd":5222,"Ġenabled":5223,"slice":5224,"Ġjo":5225,"Ġcorresponding":5226,"|'":5227,"ĠStringIO":5228,"Script":5229,"istri":5230,"dius":5231,"Ġplay":5232,"signature":5233,"([\"":5234,"Ġdownload":5235,"Ġvol":5236,"issue":5237,"Ġ50":5238,"ĠDRAW":5239,"ĠBOX":5240,"Ġsuite":5241,"':'":5242,"Ġ[-":5243,"ĠSh":5244,"cached":5245,"Ġbranch":5246,"meth":5247,"ETE":5248,"tpg":5249,"arr":5250,"ceive":5251,"fname":5252,"Ġdriver":5253,"complex":5254,"REQU":5255,"Ġmanager":5256,"rew":5257,"ĠON":5258,"Ġsig":5259,"units":5260,"Ġins":5261,"Ġconstants":5262,"ationError":5263,"Ċĉĉĉĉĉĉ":5264,"plugins":5265,"ĠDI":5266,"Ġfetch":5267,"Settings":5268,"Ġscal":5269,"reduce":5270,"REE":5271,"Ġsymbol":5272,"exer":5273,"Ġsources":5274,"translate":5275,"ĠDRAWINGS":5276,"iti":5277,"Search":5278,"1000":5279,"ATTR":5280,"Bar":5281,"amp":5282,"Ġedit":5283,"024":5284,"}'.":5285,"mem":5286,"DEBUG":5287,"Ġmaster":5288,"ĠDis":5289,"LED":5290,"uest":5291,"ĠIMPLIED":5292,"HERE":5293,"ga":5294,"Ġsq":5295,"LS":5296,"ĠLog":5297,"lon":5298,"ied":5299,"Ġcomb":5300,"unpack":5301,"tect":5302,"400":5303,"LEN":5304,"Ġreset":5305,"cookie":5306,"Spec":5307,"567":5308,"Ġduring":5309,"Ġ\"{":5310,"ĠHe":5311,"partition":5312,"Ġwritten":5313,"itation":5314,"Ġbucket":5315,"Ġasync":5316,"Ġnote":5317,"Flag":5318,"wik":5319,"Ġ')":5320,"/{":5321,"Ġvals":5322,"Ġoptim":5323,"Ġput":5324,"Ġfix":5325,"px":5326,"subnet":5327,"failure":5328,"parameter":5329,"Ġtar":5330,"Ġoperations":5331,"ulation":5332,"lite":5333,"updated":5334,"push":5335,"xxxx":5336,"counter":5337,"istered":5338,"Local":5339,"Ġsl":5340,"Ġexecute":5341,"BB":5342,"Ġtesting":5343,"Ġrecur":5344,"00000":5345,"ĠGe":5346,"ORY":5347,"Ġexpr":5348,"Ren":5349,"inv":5350,"builtin":5351,"calls":5352,"STRING":5353,"inary":5354,"scribe":5355,"ftime":5356,"IZ":5357,"Channel":5358,"extensions":5359,"gation":5360,"Ġyear":5361,"arm":5362,"ĠRE":5363,"identifier":5364,"ĠNet":5365,"Ġside":5366,"ĠSpeci":5367,"ench":5368,"tar":5369,"Ġdirectly":5370,"Ġsetattr":5371,"FR":5372,"utron":5373,"ategy":5374,"Print":5375,"Ġden":5376,"Ġuuid":5377,"COMM":5378,"Attributes":5379,"dims":5380,"sired":5381,"Ġday":5382,"AGES":5383,"ading":5384,"ĠSQL":5385,"Ġbegin":5386,"hass":5387,"teration":5388,"Ġmerge":5389,"DATE":5390,"sumer":5391,"Delete":5392,"lendar":5393,"condition":5394,"sgi":5395,"Ġscore":5396,"ERT":5397,"Ġbind":5398,"IVE":5399,"ĠBUT":5400,"Ġweight":5401,"Core":5402,"Ġonce":5403,"invoice":5404,"Ġderi":5405,"IBUT":5406,"Rou":5407,"WE":5408,":``":5409,"screen":5410,"uni":5411,"Ġseq":5412,"SSL":5413,"istribu":5414,"uplicate":5415,"acti":5416,"ĠWindows":5417,"environment":5418,"Ġworks":5419,"Ġsubject":5420,"allback":5421,"cording":5422,"Ġetc":5423,":\"":5424,"ident":5425,"Ġ\"#":5426,"visit":5427,"ird":5428,"ĠCom":5429,"CTION":5430,"Ġtimes":5431,"Err":5432,"Record":5433,"ulate":5434,"appen":5435,"Ġclear":5436,"VID":5437,"Ġnative":5438,"ĠOther":5439,"')]":5440,"ROOT":5441,"Ġep":5442,"MAP":5443,"ĠVer":5444,"Ġactions":5445,"Select":5446,"arison":5447,"Ġpr":5448,"HOST":5449,"Ġ255":5450,"warnings":5451,"Ġtake":5452,"Pool":5453,"ĠDoc":5454,"Loader":5455,"requen":5456,"asure":5457,"ĠTemplate":5458,"Ġversions":5459,"eries":5460,"Ġdump":5461,"ilities":5462,"Ġdeleted":5463,"slug":5464,"strings":5465,"mc":5466,"enu":5467,"proj":5468,"}\".":5469,"acc":5470,"ĠLIMITED":5471,"impl":5472,"exclude":5473,"sr":5474,"Ġmak":5475,"pendent":5476,"Ġvector":5477,"Ġextensions":5478,"Ġ{},":5479,"sess":5480,"Ġaliases":5481,"Cre":5482,"Make":5483,"person":5484,"draw":5485,"setdefault":5486,"CF":5487,"OB":5488,"Ġstored":5489,"peri":5490,"writer":5491,"Ġdefinition":5492,"ĊĠĠĠĠĠĠĠĠĊĠĠĠ":5493,"Ġcookie":5494,"ĠCode":5495,"Ġpkg":5496,"CUM":5497,"ä»":5498,"ĠIndex":5499,"student":5500,"Ġ_,":5501,"Store":5502,"reader":5503,"Ġ24":5504,"rup":5505,"detail":5506,"seek":5507,"locale":5508,"Ġdecor":5509,"ssh":5510,"selected":5511,"scheme":5512,"figs":5513,"Ġ-------":5514,"ĠSy":5515,"Ġsubclass":5516,"Ġawait":5517,"Ġinsert":5518,"aving":5519,"gregate":5520,"Ġwell":5521,"Ġ'\"":5522,"Ġstructure":5523,"Unless":5524,"Ġignored":5525,"Ġbest":5526,"elements":5527,"Ġbutton":5528,"',),":5529,"tax":5530,"ĠCourse":5531,"Ġcommit":5532,"234":5533,"Ġassume":5534,"Files":5535,"Ġextract":5536,"Ġtermin":5537,"controller":5538,"raries":5539,"modified":5540,"assifier":5541,"Ġfit":5542,"ĠPre":5543,"Ġcurrently":5544,"transport":5545,"oriz":5546,")?":5547,"Ġlists":5548,"Ġtempfile":5549,"JECT":5550,"ffect":5551,"Ġaddr":5552,"duration":5553,"Ġfill":5554,"shared":5555,"You":5556,"Ġ17":5557,"Ġcondition":5558,"constants":5559,"Ġcases":5560,"lab":5561,"ridge":5562,"Ġalgorithm":5563,"Document":5564,"}.":5565,"zKet":5566,"lert":5567,"VAR":5568,"CONFIG":5569,"history":5570,"Bytes":5571,"getLogger":5572,"ãĤ":5573,"ĠRead":5574,"absent":5575,"Ġproper":5576,"Ġctypes":5577,"Ġregular":5578,"Ġnumbers":5579,"AUTH":5580,"urity":5581,"identity":5582,"Ab":5583,"Ġsw":5584,"expi":5585,"handlers":5586,"Remove":5587,"reater":5588,"uses":5589,"distance":5590,"ĠĊĠĠĠ":5591,"selection":5592,"\"}),":5593,"Ġmight":5594,"Begin":5595,"ards":5596,"Ġbasis":5597,"conv":5598,"expression":5599,"VALID":5600,"two":5601,"series":5602,"ĠLIABILITY":5603,"fies":5604,"arange":5605,"dence":5606,"pdf":5607,"quiv":5608,"bits":5609,"bus":5610,"ĠGroup":5611,"ĠNe":5612,"distributions":5613,"arDown":5614,"mag":5615,"REG":5616,"LIB":5617,"cks":5618,"Dialog":5619,"Ġ----------------------------------------------------------------":5620,"Ġloss":5621,"ANS":5622,"chemy":5623,"vide":5624,"Position":5625,"should":5626,"Ġdefine":5627,"merge":5628,"Ġhome":5629,"ords":5630,"constraint":5631,"anization":5632,"em":5633,"ĠDjango":5634,"okies":5635,"vely":5636,"999":5637,"DEF":5638,"Current":5639,"Rel":5640,"shell":5641,"hidden":5642,"qty":5643,"ĊĠĠĠĠĠĠĠĠĠĠĠĠĠĠĠĠĠĠĠĠĠĠĠĠĠĠĠĠĠĠĠĠĠĠĠĠĠĠĠĠĠĠ":5644,"pub":5645,"freq":5646,"Ġprovide":5647,"sage":5648,"builder":5649,"vol":5650,"Ġtr":5651,"power":5652,"ian":5653,"ynch":5654,"priate":5655,"switch":5656,"Ð°":5657,"glext":5658,"roadcast":5659,"asy":5660,"Ġ25":5661,"iling":5662,"Ph":5663,"Ġblocks":5664,"Obj":5665,"Ġappend":5666,"Num":5667,"gis":5668,"Ġimplement":5669,"READ":5670,"digest":5671,"Ġstat":5672,"ĠModule":5673,"Over":5674,"getattr":5675,"Ag":5676,"veloper":5677,"Ġbasic":5678,"ĠExample":5679,"###":5680,"ĠDOUBLE":5681,"rm":5682,"beta":5683,"Ġvisit":5684,"Ġ42":5685,"Foo":5686,"Ġscheme":5687,"Configuration":5688,"Ġbox":5689,"relation":5690,"Jo":5691,"ãĥ":5692,"permission":5693,"accept":5694,"================================================================":5695,"Ġmaximum":5696,"lier":5697,"ĠSU":5698,"AF":5699,"tid":5700,"prev":5701,"ĠReserved":5702,"ited":5703,"Ġappe":5704,"Ġown":5705,"Ġremain":5706,"inte":5707,"TC":5708,"Ġshared":5709,"rees":5710,"ek":5711,"Ġisn":5712,"My":5713,"dependencies":5714,"Ġknow":5715,"YRIGHT":5716,"dtypes":5717,"Ġzone":5718,"ris":5719,"running":5720,"Ġwarning":5721,"cture":5722,"ĠThese":5723,"Ġdestination":5724,"Bad":5725,"Ġprivate":5726,"__\":":5727,":])":5728,"atum":5729,"cmp":5730,"oted":5731,"ĠWH":5732,"Initial":5733,"progress":5734,"operation":5735,"Profile":5736,"Ġencoded":5737,"ĠOUT":5738,"Ġglob":5739,"Ġsnapshot":5740,"Ã©":5741,"Accessor":5742,"align":5743,"imax":5744,"DD":5745,"topic":5746,"MT":5747,"ARK":5748,"ĠTHIS":5749,"browser":5750,"backup":5751,"LOC":5752,"nail":5753,"middleware":5754,"inder":5755,"192":5756,"OO":5757,"ays":5758,"Ġhook":5759,"Ġexclude":5760,"Gra":5761,"Ġdelta":5762,"SP":5763,"reason":5764,"Next":5765,"tod":5766,"Ġrecords":5767,"suite":5768,"============":5769,"lso":5770,"Ġowner":5771,"compiler":5772,"ĠTe":5773,"ongo":5774,"rozen":5775,"itle":5776,"functions":5777,"iterator":5778,"Http":5779,"dp":5780,"subprocess":5781,"RY":5782,"500":5783,"Ġnecessary":5784,"compare":5785,"PRESS":5786,"ĠXXX":5787,"ORE":5788,"ai":5789,"predi":5790,"Ġvirtual":5791,"revision":5792,"Ġtransform":5793,"Ġmonth":5794,"ĠSE":5795,"Ġthreading":5796,"dns":5797,"CRE":5798,"egg":5799,"ĠSource":5800,"CONT":5801,"Ġupload":5802,"exe":5803,"cesses":5804,"Ġ?":5805,"Ð¾":5806,"abilities":5807,"returns":5808,"Ġunknown":5809,"Row":5810,"stub":5811,"hi":5812,"derer":5813,"delay":5814,"********************************":5815,"pto":5816,"ĠCommand":5817,"Ġdepth":5818,"compat":5819,"umbnail":5820,"Ġbits":5821,"ĠModel":5822,"Ġtz":5823,"posed":5824,"BASE":5825,"Sequence":5826,"Ġappropriate":5827,"Ġconstraint":5828,"Mis":5829,"*(":5830,"Description":5831,"')[":5832,"nsors":5833,"utc":5834,"Ġexact":5835,"fully":5836,"LA":5837,"Lexer":5838,"Ġrequested":5839,"Ġsympy":5840,"card":5841,"tb":5842,"ĠQu":5843,"Ġspa":5844,"Ġsamples":5845,"deps":5846,"Ġautomatically":5847,"MAIN":5848,"Ġokay":5849,"Ġrelation":5850,"Ġ19":5851,"ĠRemove":5852,"acl":5853,"Ġpartner":5854,"Ġexpi":5855,"pages":5856,"jor":5857,"Pol":5858,"listen":5859,"tection":5860,"Ġpur":5861,"laces":5862,"300":5863,"rome":5864,"ane":5865,"Names":5866,"Ġlocale":5867,"Ġ(-":5868,"dummy":5869,"ĠSimple":5870,"servers":5871,"Ġdescriptor":5872,"[:]":5873,"Ġlineno":5874,"subject":5875,"templates":5876,"ĠCOPYRIGHT":5877,"ĠTensor":5878,"Wh":5879,"atibility":5880,"effect":5881,"043":5882,"Ġfi":5883,"Product":5884,"gui":5885,"ĠArgument":5886,"ixel":5887,"Ġbot":5888,"tn":5889,"Ġio":5890,"sel":5891,"mas":5892,"Ġincluding":5893,"Var":5894,"steps":5895,"LOW":5896,"Ġcertificate":5897,"Ġmedia":5898,"cover":5899,"fol":5900,"CHAR":5901,"eg":5902,"Only":5903,"executable":5904,"duc":5905,"Ġdeprecated":5906,"ever":5907,"ii":5908,"Ġanaly":5909,"cpp":5910,"sin":5911,"Unknown":5912,"Ġnova":5913,"Ġcontrib":5914,"ands":5915,"udo":5916,"sorted":5917,"===":5918,"cut":5919,"Ġchecks":5920,"ables":5921,"Ġhelper":5922,"eds":5923,"ĠRights":5924,"ĠIOError":5925,"Web":5926,"Ġpickle":5927,"ĠQtGui":5928,"Reader":5929,"ITS":5930,"Ġprop":5931,"Ġwords":5932,"runner":5933,"answer":5934,"Ġimages":5935,"Ġdependency":5936,"quare":5937,"closed":5938,"Ġ80":5939,"Handle":5940,"vt":5941,")')":5942,"SR":5943,"Ġresources":5944,"transaction":5945,"siz":5946,"bosity":5947,"Ġouch":5948,"Author":5949,"services":5950,"Ġsets":5951,"existing":5952,"Ġbehavior":5953,"Ġdraw":5954,"literals":5955,"'%":5956,"Ġexternal":5957,"irc":5958,"Nt":5959,"Ġcharset":5960,"=\"%":5961,"ĠNULL":5962,"yaml":5963,"fixed":5964,"Ġactually":5965,"Ġyet":5966,"localhost":5967,"Feature":5968,"team":5969,"Ġcoordin":5970,">')":5971,"ĠOnly":5972,"kt":5973,"ICAL":5974,"ram":5975,"Parameters":5976,"Menu":5977,"Ġdrop":5978,"tyle":5979,"ĠClo":5980,"Ġorg":5981,"Ġamount":5982,"notes":5983,"\"})":5984,"ring":5985,"race":5986,"tables":5987,"Ġfailure":5988,"pay":5989,"instances":5990,"pred":5991,"Ġhappen":5992,"disable":5993,"ONT":5994,"}/":5995,"setUp":5996,"fixture":5997,"ools":5998,"ustome":5999,"aaaa":6000,"ĠWeb":6001,"vn":6002,"plt":6003,"We":6004,"Unable":6005,"ĠThere":6006,"Params":6007,"Ġtransaction":6008,"Account":6009,"Ġcodecs":6010,"lations":6011,"CODE":6012,"ENCE":6013,"Ġslice":6014,";':":6015,"Ġmail":6016,"grad":6017,"\"},":6018,"110":6019,"Ġsomething":6020,"codes":6021,"firm":6022,"poly":6023,"NING":6024,"Ġrepresentation":6025,"ĠInitial":6026,"isdir":6027,"aged":6028,"Ġ2012":6029,"ynchron":6030,"setting":6031,"Ġnested":6032,"Ġdistance":6033,"=[],":6034,"ĠCF":6035,"Ġchain":6036,"Ġendpoint":6037,"ĠWHERE":6038,"Ġ*',":6039,"Ġknown":6040,"astype":6041,"Ġmodified":6042,"charset":6043,"Operation":6044,"isode":6045,"vec":6046,"ĠImage":6047,"multiple":6048,"Can":6049,"Ġimg":6050,"gu":6051,"dispatch":6052,"rive":6053,":`~":6054,"Ġboto":6055,"requency":6056,"Ġparsing":6057,"ĠExamples":6058,"ĊĠĠĠĠĠĠĠĠĠĠĠĠĠĠĠĠĠĠĠĠĠĠĠĠĠĠĠĠĠĠĠĠĠĠĠĠĠĠĠĠĠĠĠĠĠĠĠ":6059,"permissions":6060,"ĠAnd":6061,"deleted":6062,"country":6063,"ĠRuntimeError":6064,"kit":6065,"ln":6066,"cel":6067,"Ġgrid":6068,"fiers":6069,"Ġdele":6070,">>>":6071,"PROC":6072,"Ġast":6073,"isinstance":6074,"åı":6075,"Ġiterable":6076,"ĠParse":6077,"alent":6078,"Ġ#:":6079,"ks":6080,"flavor":6081,"sistent":6082,"subclass":6083,"LY":6084,"Ġfig":6085,"elem":6086,"AV":6087,"stock":6088,"PIPE":6089,"Last":6090,"dimen":6091,"circ":6092,"Ġtraining":6093,"112":6094,"getitem":6095,"(\"-":6096,"']\"}),":6097,"DIRECT":6098,"Ġ\")":6099,"specific":6100,"prob":6101,"EP":6102,"uess":6103,"plain":6104,"Top":6105,"native":6106,"Ġdecimal":6107,"Ġcla":6108,"ulator":6109,"Ġ(_":6110,"Ġfd":6111,"ories":6112,"|\\":6113,"Ġcomplex":6114,"(_(\"":6115,"absolute":6116,"Ġpackages":6117,"Ġmp":6118,"Use":6119,"Ġiden":6120,"ĠAlso":6121,"Ġiterator":6122,"bed":6123,"ĠLE":6124,"cipi":6125,"oauth":6126,"Ġallows":6127,"Ġmd":6128,"RI":6129,"alth":6130,"UND":6131,"Ġlon":6132,"eded":6133,"contains":6134,"Ġgit":6135,"validation":6136,"Ġbuilt":6137,"java":6138,"Password":6139,"ĠUnicode":6140,"\"\"\")":6141,"ips":6142,"LIN":6143,"Ġrepresenting":6144,"TF":6145,"Ġ~":6146,"player":6147,"ĠDate":6148,"Ġssl":6149,"sitions":6150,"AAAA":6151,");\\":6152,"gi":6153,"Speci":6154,"Ġ18":6155,"raction":6156,"cipient":6157,"Driver":6158,"utdown":6159,"Ġenviron":6160,"orn":6161,"ĠUpdate":6162,"ĊĠĠĠĠĠĠĠĠĠĠĠĠĠĠĠĠĠĠĠĠĠĠĠĠĠĠĠĠĠĠĠĠĠĠĠĠĠĠĠĠĠĠĠĠ":6163,"hn":6164,"illa":6165,"TA":6166,"'[?":6167,"Ġround":6168,"Ġagainst":6169,"Ġcore":6170,"Ġ2013":6171,"Def":6172,"Msg":6173,"LINE":6174,"separ":6175,"(':":6176,"qs":6177,"DIS":6178,"gyp":6179,"Ġmigrations":6180,"Ġtakes":6181,"apt":6182,"ĠHttpResponse":6183,"ĠAny":6184,"baz":6185,"ĠDEFAULT":6186,"ĠSystem":6187,"relative":6188,"ILLIC":6189,"quivalent":6190,"YRILLIC":6191,"pacity":6192,"Ġelem":6193,"formed":6194,"SU":6195,"ICT":6196,"Ġrouter":6197,"abstract":6198,"placeholder":6199,"Load":6200,"ected":6201,"Ġstrip":6202,"Ġfilenames":6203,"Ġunits":6204,"strftime":6205,"Ġord":6206,"Suite":6207,"ĠĠĠĠĠĠĠĠĠĠĠĠĠĠĠĠĠĠĠĠĠĠĠĠĠĠĠĠĠĠĠĠĠĠĠĠĠĠĠĠĠĠĠĠĠĠĠĠĠĠĠĠĠĠĠĠĠĠĠĠĠĠĠĠ":6208,"Cho":6209,"citation":6210,"Ġtyp":6211,"Ġsummary":6212,"Args":6213,"sian":6214,"tt":6215,"Width":6216,"/')":6217,"ĠRaises":6218,"ĠOut":6219,"Ġlinks":6220,"variance":6221,"Ġatom":6222,"comments":6223,"teps":6224,"IST":6225,"pad":6226,"quences":6227,"asn":6228,"\"]:":6229,"Ġcat":6230,"Directory":6231,"nsure":6232,"Ġgoogle":6233,"versions":6234,"Ġcredentials":6235,"teri":6236,"cip":6237,"android":6238,"ĠCYRILLIC":6239,"Ġdimension":6240,"Normal":6241,"statement":6242,"JSON":6243,">,":6244,"ROL":6245,"Ġhostname":6246,"Ġperiod":6247,"Ġ()":6248,"ĠDB":6249,"Ġcert":6250,"share":6251,"Ġinterval":6252,"packet":6253,"TextField":6254,"Elements":6255,"']\",":6256,"Hello":6257,"Ġswitch":6258,"eError":6259,"high":6260,"Writer":6261,"ĠBE":6262,"ĠLoc":6263,"tries":6264,"BC":6265,"ĠTrans":6266,"imer":6267,"dian":6268,"Ġmenu":6269,"=[\"":6270,"hr":6271,"Ġinside":6272,"Ġpadding":6273,"ressions":6274,"Ġedge":6275,"Ġsci":6276,"Ġcv":6277,"vance":6278,"ational":6279,"locate":6280,"izard":6281,"scan":6282,"allel":6283,"heel":6284,"Ġmaterial":6285,"Ðµ":6286,"xF":6287,"ĠMeta":6288,"ĠBSD":6289,"Ġsaved":6290,"Ġ'=',":6291,"isfile":6292,"Stop":6293,"HA":6294,"Import":6295,"Ġsur":6296,"edi":6297,"Ġhass":6298,"Ġauthentication":6299,"Nodes":6300,"Te":6301,"Ġsyntax":6302,"Ġsubnet":6303,"blue":6304,"STATUS":6305,"periment":6306,"/\\":6307,"Ġdot":6308,"ocker":6309,"rv":6310,"clone":6311,"cremental":6312,"Ġquote":6313,"together":6314,"izers":6315,"Ġnorm":6316,"Ġfixed":6317,"Ġhex":6318,"ĊĊĉĉ":6319,")\")":6320,"formats":6321,"rain":6322,"wx":6323,"channels":6324,"Ġcy":6325,"Ġmade":6326,"sal":6327,"Ġcached":6328,"stit":6329,"Ġorigin":6330,"/*":6331,"TG":6332,"({\"":6333,"members":6334,"Ġ40":6335,"cost":6336,"Ġitself":6337,"processing":6338,"Ġlang":6339,"Keys":6340,"dk":6341,"Ġpairs":6342,"ĊĠĠĠĠĠĠĠĠĠĠĠĠĠĠĠĠĠĠĠĠĠĠĠĠĠĠĠĠĠĠĠĠĠĠĠĠĠĠĠĠĠĠĠĠĠ":6343,"ustomer":6344,"ĠDecimal":6345,"Ġtuples":6346,"Ġseed":6347,"SUB":6348,"ene":6349,"esser":6350,"PREFIX":6351,"previous":6352,"zA":6353,"locator":6354,"decimal":6355,"doctype":6356,"Ġsklearn":6357,"Ġcalling":6358,"Ġarchive":6359,"ras":6360,"Const":6361,"Has":6362,"Ġstates":6363,"Ġds":6364,"Ġcompiler":6365,"Ġimplemented":6366,"loor":6367,"ulk":6368,"Ġflow":6369,"Ġmetric":6370,"lv":6371,"Timeout":6372,"Arg":6373,"lb":6374,"Ġrepe":6375,"nested":6376,"Ġqs":6377,"ĠInvalid":6378,"UI":6379,"Ġserialized":6380,"Flags":6381,"Extension":6382,"Serialize":6383,"Ġaut":6384,"Ġanswer":6385,"!!!!":6386,"Ġdesired":6387,"NE":6388,"NC":6389,"252":6390,"Ġsecurity":6391,"ĠCONF":6392,")+":6393,"Ġdat":6394,"lazy":6395,"agtail":6396,"Offset":6397,"ysql":6398,"href":6399,"laimer":6400,"ĠLesser":6401,"axes":6402,"tit":6403,"archive":6404,"Root":6405,"cancel":6406,"readline":6407,"Storage":6408,"disc":6409,"devices":6410,"Ġvalidation":6411,"('_":6412,"cn":6413,"Ġsimp":6414,"mes":6415,"+_":6416,"Url":6417,"manifest":6418,"week":6419,"Ġqual":6420,"Ġinterpre":6421,")**":6422,"ĠBe":6423,"StringIO":6424,"Ġcreating":6425,"Ġscreen":6426,"embed":6427,"dm":6428,"scripts":6429,"ĠMessage":6430,"ĠKeyword":6431,"Lock":6432,"optim":6433,"Ġfactory":6434,"conver":6435,"IBUTORS":6436,"Builder":6437,"Ġ'*":6438,"Exist":6439,"ĠOSError":6440,"Ġembed":6441,"live":6442,"Matrix":6443,"precation":6444,"ĠMoved":6445,"INCLUDING":6446,"compress":6447,"'',":6448,"Ġworking":6449,"Ġdisclaimer":6450,"Ġexecution":6451,"findall":6452,"micro":6453,"Ġpd":6454,"pending":6455,"Datum":6456,"rac":6457,"deg":6458,"processor":6459,"inline":6460,"ĠEVENT":6461,"problem":6462,"glob":6463,"Volume":6464,"Ġlow":6465,"Ġfuture":6466,"ATOR":6467,"Ġ'\\\\":6468,"bundle":6469,"Mark":6470,"omial":6471,"configure":6472,"etail":6473,"Ġstudent":6474,"antity":6475,"Enable":6476,"gpu":6477,"istribution":6478,"hint":6479,"mesh":6480,"geom":6481,"Ġgl":6482,"ĠCONTRIBUTORS":6483,"Ġpartition":6484,"Ġinspect":6485,"inherit":6486,"GB":6487,"Ġrec":6488,"------------------------------------------------":6489,"compatible":6490,"izes":6491,"tabstop":6492,"origin":6493,"Ø§":6494,"TP":6495,"ĠTests":6496,"Ġpages":6497,"initializer":6498,"Ġproc":6499,"Ð¸":6500,"rift":6501,"records":6502,"Ġrxn":6503,"afe":6504,"nor":6505,"Ġinner":6506,"cnt":6507,"wsgi":6508,"ĠIPv":6509,"otes":6510,"Ġloaded":6511,"Reaction":6512,"Ġsec":6513,"actual":6514,"ĠBY":6515,"ĠBuild":6516,"Work":6517,"decor":6518,"Ġbug":6519,"endpoint":6520,"DAT":6521,"Ġ''.":6522,"ĠCall":6523,"WR":6524,"cwd":6525,"when":6526,"Ġtasks":6527,"lies":6528,"ĠAuthor":6529,"Temp":6530,"Could":6531,"je":6532,"LD":6533,"Ġraises":6534,"Ġfactor":6535,":',":6536,"requires":6537,"']]":6538,"8613":6539,"Ġcompare":6540,"allowed":6541,"2010":6542,"ROUP":6543,"Ġexpand":6544,"Ġbuilder":6545,"Ġ23":6546,"ĠTType":6547,"Ġnothing":6548,"enchmark":6549,"Values":6550,"ĠInter":6551,"mut":6552,"mu":6553,"Ġattach":6554,"Ġcompile":6555,"urations":6556,"132":6557,"ru":6558,"inc":6559,"comb":6560,"ĠVi":6561,"asset":6562,"clusive":6563,"Post":6564,"########################":6565,"ĠElement":6566,"Ġpad":6567,"168":6568,"ĠPOINTER":6569,"ĠAC":6570,"Ġprovides":6571,"Ġarrays":6572,"agic":6573,"chars":6574,"]).":6575,"509":6576,"metaclass":6577,"ĠLEFT":6578,"Results":6579,"Clean":6580,"phy":6581,"blob":6582,"Ip":6583,"Cal":6584,"ygon":6585,"Does":6586,"æľ":6587,"MAN":6588,"Enabled":6589,"Ġnor":6590,"Find":6591,"Location":6592,"AIL":6593,"ceiver":6594,"prog":6595,"ĠIs":6596,"DESCRIPT":6597,">%":6598,"worker":6599,"Comple":6600,"ĠSome":6601,"Ġdirectories":6602,"wb":6603,"visible":6604,"Ġms":6605,"family":6606,"ocab":6607,"Middleware":6608,"Style":6609,"UTF":6610,"\"][\"":6611,"Cannot":6612,"SERVER":6613,"console":6614,"requests":6615,"]'":6616,"Ġstarting":6617,"ater":6618,"Ġ1024":6619,"vie":6620,"Rate":6621,"utors":6622,"Ġindicate":6623,"ĠCH":6624,"mox":6625,"stdin":6626,"changes":6627,"ticular":6628,"$(":6629,"ĠOtherwise":6630,"Ġagent":6631,"ĠSign":6632,"Ġacti":6633,"Ġrate":6634,"refresh":6635,"Binary":6636,"sib":6637,"USG":6638,"unity":6639,"attrib":6640,"{\"":6641,"ĠAuthors":6642,"pend":6643,"pix":6644,"subscription":6645,"ĠContent":6646,"Ġdbse":6647,"ctive":6648,"mg":6649,"FIEL":6650,"Av":6651,"Parent":6652,"pur":6653,"ĠOper":6654,"ReactionDatum":6655,"Ġless":6656,"Ġcorrectly":6657,"Ġdbinstance":6658,"ĠChar":6659,"Ġmime":6660,"Ġprocessing":6661,"selector":6662,"Provider":6663,"special":6664,"ably":6665,"plus":6666,"deprecated":6667,"ĠFind":6668,"URCE":6669,"lying":6670,"Mon":6671,"partial":6672,"111":6673,"Ġdtypes":6674,"Ġpush":6675,"linear":6676,"numeric":6677,"Phy":6678,"Encoder":6679,"iteral":6680,"Ġ'+":6681,"Ġpi":6682,"600":6683,"ĊĠĠĠĠĠĠĠĠĠĠĠĠĠĠĠĠĠĠĠĠĠĠĠĠĠĠĠĠĠĠĠĠĠĠĠĠĠĠĠĠĠĠĠĠĠĠĠĠĠĠĠĠĠĠĠĠĠĠĠĠĠĠĠĠ":6684,"UID":6685,"204":6686,"/\"":6687,"forward":6688,"STATE":6689,"56789":6690,"keyword":6691,"tence":6692,"priority":6693,"Job":6694,"Ġvim":6695,"Ġprogress":6696,".*?":6697,"Ġsymbols":6698,"Exit":6699,"Schema":6700,"Ġworld":6701,"Ġconverted":6702,"chase":6703,"'m":6704,"Ġdetermine":6705,"diag":6706,"Ġterm":6707,"120":6708,"Ġgradient":6709,"while":6710,"plotlib":6711,"ality":6712,"Remote":6713,"Ġts":6714,"Ġdns":6715,"Ġtables":6716,"lists":6717,"800":6718,"Ġbook":6719,"voke":6720,"geo":6721,"ĊĉĠĠĠ":6722,"(_('":6723,"hostFtdc":6724,"ctxt":6725,"prepare":6726,"uda":6727,"Ġqui":6728,"loyee":6729,"Ġ'[":6730,"alg":6731,"alchemy":6732,"OFP":6733,"ilar":6734,"rstrip":6735,"ĠDAMAGES":6736,"vc":6737,"ana":6738,"(\"--":6739,"house":6740,"DV":6741,"matches":6742,"checker":6743,"machine":6744,"Decimal":6745,"WOR":6746,"acter":6747,"Ġfname":6748,"ToMany":6749,"props":6750,"parsed":6751,"Ġformats":6752,"readonly":6753,"Ġ###":6754,"scroll":6755,"Main":6756,"(\"<":6757,"ERP":6758,"metrics":6759,"dash":6760,"notification":6761,"Ġbuiltin":6762,"ĠEvent":6763,"rollment":6764,"nova":6765,"ĠtearDown":6766,"generic":6767,"Ġleg":6768,")}":6769,"Ġparticular":6770,"Ġsock":6771,"3333":6772,"BE":6773,"'(":6774,"Ġseen":6775,"projects":6776,"which":6777,"ĠUN":6778,"Ġseries":6779,"REQUEST":6780,"Ġapplied":6781,"Failure":6782,":\",":6783,"strument":6784,"104":6785,"Ġcomments":6786,"rigin":6787,"based":6788,"area":6789,"COMP":6790,"Ġprior":6791,"ient":6792,"-+":6793,"recur":6794,"Send":6795,"att":6796,"wiki":6797,"protected":6798,"gmail":6799,"Ġndarray":6800,"ĠFunction":6801,"Ġvars":6802,"=='":6803,"Ġtrigger":6804,"Conn":6805,"epcopy":6806,"standard":6807,"\"%":6808,":-":6809,"ĠClient":6810,"usters":6811,"æĺ":6812,"ateway":6813,"notify":6814,"program":6815,"Ret":6816,"uffle":6817,"Ġaround":6818,"ĠComment":6819,"ĠSup":6820,"watch":6821,"Ġrev":6822,"ĠRedistributions":6823,"Show":6824,"ntaxError":6825,"Ġbl":6826,"ĠWhy":6827,"'+":6828,"Ġflat":6829,"GetTypeId":6830,"Geometry":6831,"ĠAle":6832,"precision":6833,"}'":6834,"Ġwrong":6835,"svn":6836,"ĠPROVID":6837,"gz":6838,"etc":6839,"ells":6840,"Ġsupplied":6841,"rable":6842,"poll":6843,"Ġmachine":6844,"Basic":6845,"foreign":6846,"orph":6847,"ĠRo":6848,"VM":6849,"ective":6850,"counts":6851,"skb":6852,"ILD":6853,"oring":6854,"ĠCan":6855,"bg":6856,"ev":6857,"Ġviews":6858,"MPLATE":6859,"TraceSource":6860,"pagation":6861,"cogn":6862,"Ġreadonly":6863,"Generate":6864,"xi":6865,"Ġcopies":6866,"ced":6867,"hand":6868,"Ġengine":6869,"diffe":6870,"Ġtimedelta":6871,"rx":6872,"XXXX":6873,"direction":6874,"Rep":6875,"Ġclosed":6876,"Ġ37":6877,"more":6878,"ĠMulti":6879,"'[?]',":6880,"destination":6881,"IV":6882,"rd":6883,"ratio":6884,"CLASS":6885,"214":6886,"Ġvisibility":6887,"Title":6888,"125":6889,"Ġouter":6890,"Ġ500":6891,"predict":6892,"translation":6893,"traceback":6894,"Ġsn":6895,"tol":6896,"imate":6897,"aut":6898,"Ġ\"\")":6899,"Ġ2015":6900,"ĊĠĠĠĠĠĠĠĠĠĠĠĠĠĠĠĠĠĠĠĠĠĠĠĠĠĠĠĠĠĠĠĠĠĠĠĠĠĠĠĠĠĠĠĠĠĠ":6901,"Ġbackup":6902,"PU":6903,"Ġcm":6904,"ĊĊĊĊ":6905,"Contains":6906,"Ġacc":6907,"tract":6908,"PASS":6909,"ital":6910,"Cons":6911,"ĠPath":6912,"covery":6913,"ucce":6914,"Ġrank":6915,"lst":6916,"Ġscalar":6917,"Ġfails":6918,"ETHER":6919,"jobs":6920,"Power":6921,"],[":6922,"äº":6923,"ĠInput":6924,"Ġhour":6925,"assertIsInstance":6926,"Ġ2014":6927,"Ġ22":6928,"edges":6929,"NECT":6930,"ĠINCLUDING":6931,"Non":6932,"deli":6933,"article":6934,"ĠObject":6935,"ario":6936,"istic":6937,"Ġlisten":6938,"Transform":6939,"Queryset":6940,"Ġreferences":6941,"credentials":6942,"tended":6943,"ĠNOTE":6944,"KEN":6945,"Ġnegative":6946,"Ġconnections":6947,"Tri":6948,"\"',":6949,"Ġfrappe":6950,"Positive":6951,"Ġincludes":6952,"ĠAnsibleModule":6953,"Ġgood":6954,"Ġnotification":6955,"zilla":6956,"ĠTable":6957,"continue":6958,"Sum":6959,"lict":6960,"PACK":6961,"threads":6962,"MODE":6963,"Expected":6964,"2013":6965,"Ġcalcul":6966,"TAG":6967,"FFFF":6968,"xtures":6969,"Changed":6970,"phase":6971,"lev":6972,"8615":6973,"Ġrevision":6974,"Ġclf":6975,"structure":6976,".+":6977,"ISING":6978,"Course":6979,"Ġdisabled":6980,"Pos":6981,"Ġconstruct":6982,"resolve":6983,"1111":6984,"Ali":6985,"Font":6986,"rupt":6987,"ĠSP":6988,"ATED":6989,"ĠWrite":6990,"xE":6991,"ook":6992,"tv":6993,"Del":6994,"IGIT":6995,"109":6996,"6666":6997,"Ġalign":6998,"certificate":6999,"ĠSHALL":7000,"slash":7001,"Ġreader":7002,"Ġanything":7003,"Component":7004,"ĠLe":7005,"BitField":7006,"car":7007,"Ġupper":7008,"Ġtemplates":7009,"best":7010,"disabled":7011,"Optional":7012,"CUR":7013,"DELETE":7014,"fast":7015,"Ġicon":7016,"ĠSER":7017,"staff":7018,"gateway":7019,"ĠItem":7020,"Member":7021,"digits":7022,"[\\":7023,"ĠLIABLE":7024,"Global":7025,"Ġscipy":7026,"LC":7027,"anded":7028,"Ġupdates":7029,"ĠLine":7030,"Ġlarge":7031,"Ġannot":7032,"scalar":7033,"TYP":7034,"Email":7035,"fun":7036,"Ġdue":7037,"ĠÐ":7038,"Ġdescri":7039,"ICES":7040,"VALUE":7041,"Ġbrowser":7042,"ĠARISING":7043,"?',":7044,"percent":7045,"ĠComm":7046,"aves":7047,"ĠEach":7048,"ĠPROVIDED":7049,"chor":7050,"want":7051,"ĠRIGHT":7052,"ĠNew":7053,"Ġlayout":7054,"Ġcounter":7055,"ĠTORT":7056,"Ġhosts":7057,"')))":7058,"([^":7059,"Ġwriter":7060,"ĠWHETHER":7061,"Ġec":7062,"}\"":7063,"olved":7064,"Ġdistutils":7065,"ĠCONTRACT":7066,"journal":7067,"zed":7068,"assertAllEqual":7069,"Ġtb":7070,"Redirect":7071,"QuerysetEqual":7072,"pm":7073,"Ġpower":7074,"Tuple":7075,"Ġtod":7076,"igration":7077,"Ġnever":7078,"FS":7079,"YY":7080,"ierarch":7081,"Ġ/>":7082,"ĠSta":7083,"Debug":7084,"ology":7085,"Ġregistry":7086,"Unicode":7087,"flat":7088,"AMP":7089,"Ġfo":7090,"roken":7091,"Ġ).":7092,"syntax":7093,"Ġå":7094,"WISE":7095,"qa":7096,"Ġurlparse":7097,"ales":7098,"Register":7099,"Ġmodification":7100,"sca":7101,"gf":7102,"Ġlex":7103,"Ġfmt":7104,"Ġ31":7105,"dependent":7106,"scores":7107,"assertQuerysetEqual":7108,"agraph":7109,"ĠNE":7110,"BACK":7111,"collect":7112,"connected":7113,"Ġreduce":7114,"Ġtran":7115,"Ġbasestring":7116,"Ġcs":7117,"ergy":7118,"119":7119,"colors":7120,"APP":7121,"amera":7122,"ORIZ":7123,"Ġsteps":7124,"NUM":7125,"ĠDATA":7126,"rica":7127,"ordering":7128,"Ġ2010":7129,"ouse":7130,"Ġderived":7131,"ĠProcess":7132,"isto":7133,"COLOR":7134,"ĠJo":7135,"gd":7136,"Ġtimezone":7137,"under":7138,"Children":7139,"ANCE":7140,"Ġchoice":7141,"Ġliter":7142,"Ġcreation":7143,"Attr":7144,"timezone":7145,"ĠServer":7146,"First":7147,"Ġpixel":7148,"Ġaddresses":7149,"getvalue":7150,"Ġprecision":7151,"ToManyField":7152,"mapper":7153,"retry":7154,"199":7155,"INGLE":7156,"monitor":7157,"vey":7158,"tached":7159,"gnore":7160,"Route":7161,"unlink":7162,"Ġcompatibility":7163,"agicMock":7164,"erred":7165,">\",":7166,"Ġ^":7167,"ĠEXPRESS":7168,"tend":7169,"NA":7170,"'ll":7171,"tile":7172,"ĠMark":7173,"onical":7174,"vlan":7175,"achine":7176,"CEPT":7177,"NN":7178,"Ġnone":7179,"cial":7180,"Sc":7181,"Ġaccording":7182,"Ġthreads":7183,"BR":7184,"draft":7185,"Ġmetrics":7186,"IBLE":7187,"Ġhy":7188,"scall":7189,"ĠLoad":7190,"same":7191,"Ġgr":7192,"DoesNot":7193,"avi":7194,"mble":7195,"dialog":7196,"ENSM":7197,"Ġask":7198,"anis":7199,"Single":7200,"ighbor":7201,"ENSMUSG":7202,"cepted":7203,"protobuf":7204,"ĠĊĠĠĠĠĠĠĠĠĠĠĠ":7205,"categor":7206,"follow":7207,"\"\"\",":7208,"Ġflask":7209,"Ġ\"+":7210,"schedule":7211,"inventory":7212,"Ġrestri":7213,"124":7214,"ĠUP":7215,")-":7216,"POINT":7217,"filepath":7218,"Lim":7219,"ĠNetwork":7220,"Article":7221,"hort":7222,"Custom":7223,"ufe":7224,"ĠInteger":7225,"inux":7226,"threshold":7227,"shake":7228,"ascript":7229,"\"\")":7230,"aws":7231,"ĠResponse":7232,"Ġcompany":7233,"lyph":7234,"ĠAlexa":7235,"PECI":7236,"destroy":7237,"Shape":7238,"Ġworker":7239,"ĠCA":7240,"small":7241,"ĠOutput":7242,"Database":7243,"Ġ\":":7244,"trl":7245,"Ġcpp":7246,"ible":7247,"Agg":7248,"Ġtools":7249,"Go":7250,"Ġexamples":7251,"Ġhandling":7252,"dense":7253,"trip":7254,"ĠExt":7255,"Ġdevices":7256,"slots":7257,"PARAM":7258,"ĠOver":7259,"assertAllClose":7260,"tire":7261,"Ġindic":7262,"129":7263,"Ġregistered":7264,"imal":7265,"gres":7266,"Ġselection":7267,"Ġpretty":7268,"Ġretry":7269,"logs":7270,"Almost":7271,"]\\":7272,"specs":7273,"usted":7274,"submit":7275,"isual":7276,"irq":7277,"NET":7278,"Big":7279,"2014":7280,"Double":7281,"Ġbig":7282,"Ġdummy":7283,"sertionError":7284,"ENTRY":7285,"Ġexecutable":7286,"Ġ([":7287,"ically":7288,"Ġclone":7289,"ĠProject":7290,"xis":7291,"processed":7292,"}',":7293,"Ġ28":7294,"fini":7295,"roker":7296,"serv":7297,"ĠDIGIT":7298,"Serializer":7299,"vl":7300,"tives":7301,"Entity":7302,"();":7303,"Fields":7304,"Ġpip":7305,"Convert":7306,"copyright":7307,"TL":7308,"ĠOne":7309,"assistant":7310,"HEADER":7311,"NV":7312,"ification":7313,"por":7314,"avascript":7315,"Total":7316,"Ġpositive":7317,"ĊĊĊĠĠĠĠĠĠĠ":7318,"ĠCur":7319,"105":7320,"INPUT":7321,"pairs":7322,"Ġcomponents":7323,"Ġ'/'":7324,"gamma":7325,"SEQU":7326,"exact":7327,"Ġwagtail":7328,"ĠRFC":7329,"dif":7330,"AlmostEqual":7331,"377":7332,"ĠFIX":7333,"ĠOTHERWISE":7334,"NAM":7335,"ISO":7336,"ĠResource":7337,"jar":7338,"Ġdelay":7339,"Ġ\"(":7340,"RET":7341,"COUN":7342,"nx":7343,"Person":7344,"Ġstride":7345,"dele":7346,"Ġps":7347,"_{":7348,"Ġ29":7349,"Qgs":7350,"ka":7351,"Ġtm":7352,"Ġequivalent":7353,"too":7354,"Ġcoef":7355,"ĠNow":7356,"106":7357,"balance":7358,"gramm":7359,"website":7360,"sensitive":7361,"117":7362,"START":7363,"CII":7364,"Ġdimensions":7365,"orizont":7366,"epoch":7367,"Ġtestdir":7368,"Ġ\"[":7369,"Ġ\"{{":7370,"negative":7371,"ACC":7372,"Ġduration":7373,"listdir":7374,"Ġsep":7375,"mous":7376,"Ġfast":7377,"DOMAIN":7378,"pipeline":7379,"SUP":7380,"Ġunsigned":7381,"Loop":7382,"evaluate":7383,"Copyright":7384,"')]],":7385,"+',":7386,"RED":7387,"MESS":7388,"Ġproduce":7389,"Ġtwisted":7390,"ags":7391,"Ġcsv":7392,"ĠTEST":7393,"Api":7394,"without":7395,"Ġseparate":7396,"deredDict":7397,"ighbors":7398,"Ġconsi":7399,"DoesNotExist":7400,"lid":7401,"ĠSUP":7402,"Ġlin":7403,"ather":7404,"LOAD":7405,"dag":7406,"aging":7407,"ĠCONT":7408,"2012":7409,"latest":7410,"alf":7411,"Items":7412,"ÑĤ":7413,"timer":7414,"ufa":7415,"getter":7416,"Ġpartial":7417,"assertNotEqual":7418,"romium":7419,"eng":7420,"acters":7421,"Role":7422,"addresses":7423,"Library":7424,"Ġsmall":7425,"Extra":7426,"Ġattempt":7427,"VS":7428,"Ġcc":7429,"dimension":7430,"YP":7431,"002":7432,"TEMPLATE":7433,"Ġcb":7434,"patterns":7435,"interfaces":7436,"Ġvery":7437,"DT":7438,"ned":7439,"REEK":7440,"ages":7441,"LANG":7442,"Note":7443,"Ġunless":7444,"Ġversionadded":7445,"Runner":7446,"Ġwhose":7447,"ĠDict":7448,"Ġfs":7449,"symbols":7450,"background":7451,"Ġsqrt":7452,"CUMENT":7453,"endor":7454,"ike":7455,"claration":7456,"Report":7457,"EDI":7458,"PROTO":7459,"versed":7460,"aps":7461,"gration":7462,"definition":7463,"Ġpriority":7464,"Func":7465,"IDENT":7466,"Sim":7467,"Ġappear":7468,"Modi":7469,"pectr":7470,"xA":7471,"Active":7472,"timedelta":7473,"OM":7474,"Ġroute":7475,"sical":7476,"mited":7477,"Ġstrict":7478,"zeug":7479,"ĠWhether":7480,"Ġminimum":7481,"Ġtopic":7482,"witter":7483,"GC":7484,"Ġturn":7485,"LOCAL":7486,"Ġquot":7487,"Comment":7488,"Deserialize":7489,"gradient":7490,"139":7491,"@@":7492,"lr":7493,"ĠHow":7494,"kzeug":7495,"Verify":7496,"ĠPl":7497,"137":7498,"ĠCor":7499,"__',":7500,"oom":7501,"teractive":7502,"SGI":7503,"cid":7504,"ensure":7505,"Controller":7506,"122":7507,"Ġhard":7508,"ĠHAS":7509,"white":7510,"keywords":7511,"Ġresolve":7512,"Ġrot":7513,"uous":7514,"editor":7515,"aggregate":7516,"OFF":7517,"lica":7518,"uom":7519,"allclose":7520,"Lookup":7521,"party":7522,"ĠEnsure":7523,"116":7524,"ĠVM":7525,"Ġconfigured":7526,"riteri":7527,"[(":7528,"ĠDon":7529,"nl":7530,"Ġdecorator":7531,"configs":7532,"')(":7533,"Ġargparse":7534,"Utils":7535,"Wait":7536,"ropy":7537,"requirements":7538,"atal":7539,"CTYPE":7540,"][\"":7541,"ĉĉĉĉ":7542,"ĠDocument":7543,"Identifier":7544,"Ġgets":7545,"helpers":7546,"bounded":7547,"clip":7548,"velop":7549,"orizontal":7550,"may":7551,"TagList":7552,"ĠSTR":7553,"Ġerrno":7554,"107":7555,"Ġmembers":7556,"Ġmar":7557,"Ġ(?":7558,"Ġetree":7559,"ĠAUTH":7560,"blems":7561,"Val":7562,"('.')":7563,"crete":7564,"Ġsecret":7565,"yy":7566,"wall":7567,"Ġforward":7568,"TESTS":7569,"abe":7570,"ĠGREEK":7571,"latex":7572,"Ġmem":7573,"tm":7574,"BX":7575,"Ġdigits":7576,"+_+_":7577,"trols":7578,"Fl":7579,"DESCRIPTOR":7580,"Ġdirection":7581,"134":7582,"Indent":7583,"ĠPoint":7584,"Ġproducts":7585,"ula":7586,"ĠDIS":7587,"training":7588,"failUnless":7589,"*\\":7590,"ĠService":7591,"Ð½":7592,"repeated":7593,"Ġqueryset":7594,"Rout":7595,"Ġ':":7596,"venio":7597,"lices":7598,"Generator":7599,"ĠFIXME":7600,"'<":7601,"ives":7602,"ture":7603,"Ġsync":7604,"ĠSUB":7605,"Ġdirs":7606,"onymous":7607,"MC":7608,"Ġdays":7609,"ducer":7610,"Ġrepository":7611,"cycle":7612,"ESP":7613,"Ġcontroller":7614,"ailability":7615,"sph":7616,"world":7617,"updates":7618,"Conver":7619,"oked":7620,"Literal":7621,"={}":7622,"ĠJzKet":7623,"ManyToManyField":7624,"speed":7625,"mime":7626,"Ġcandidate":7627,"ĠArguments":7628,"Ġur":7629,"Encoding":7630,"trigger":7631,"lour":7632,"Ġ256":7633,"Ġdispatch":7634,"ĠVerify":7635,"114":7636,"recv":7637,"PDF":7638,"URI":7639,"ĠTestCase":7640,"cher":7641,"networks":7642,"Space":7643,"splitlines":7644,"Ġthings":7645,"sf":7646,"Ġmet":7647,"URN":7648,"ĠTry":7649,"prompt":7650,".\"),":7651,"uman":7652,"ĠOpenERP":7653,"Ġind":7654,"refs":7655,"#----------------------------------------------------------------":7656,"installed":7657,"Feed":7658,"Ġgrad":7659,"geometry":7660,"cleanup":7661,"Ġexplicitly":7662,"180":7663,"Ġreading":7664,"moving":7665,"Ġnormalize":7666,"Ġcp":7667,"licies":7668,"Ġphase":7669,"allen":7670,"FromString":7671,"enticate":7672,"Ġ'&":7673,"Mapping":7674,"Ġcause":7675,"Security":7676,"fragment":7677,"Ġuti":7678,"Ġpipeline":7679,"115":7680,"Ġkeywords":7681,"canvas":7682,"andas":7683,"Ġproperly":7684,"migrations":7685,"Ġprocessed":7686,"Display":7687,"Ġable":7688,"TERN":7689,"Tab":7690,"arrow":7691,"Usage":7692,"*',":7693,"([(":7694,"CD":7695,"stime":7696,"ko":7697,"UST":7698,"litext":7699,"Some":7700,"PP":7701,"assertIsNone":7702,"ĠHOLD":7703,"Ġmakes":7704,"Domain":7705,"Ġshift":7706,"ĠStart":7707,"Ġpie":7708,"\"+":7709,"Ġreally":7710,"ĠPost":7711,"Ġmanifest":7712,"Selection":7713,"Ġ$(":7714,"outube":7715,"ancer":7716,"resolver":7717,"Missing":7718,"ĠShould":7719,"mulation":7720,"normalize":7721,"pher":7722,"sizes":7723,"tices":7724,"ivar":7725,"runtime":7726,"1024":7727,"realm":7728,"ĠEND":7729,"AI":7730,"green":7731,"presen":7732,"FileName":7733,"Ġà¤":7734,"ders":7735,"512":7736,"Ġcateg":7737,"Skip":7738,"Ġchecker":7739,"unctools":7740,"Ġordered":7741,"ely":7742,"ĠChange":7743,"Env":7744,"nacl":7745,"DEX":7746,"contain":7747,"Ġplayer":7748,"Ġ{%":7749,"Ġvarious":7750,"pin":7751,"titions":7752,"ÑĢ":7753,"ĠPlease":7754,"mgr":7755,"ToString":7756,"walk":7757,"ĠFirst":7758,"102":7759,"Ġ2011":7760,"Ġtranslation":7761,"ARCH":7762,"Ġeffect":7763,"dynamic":7764,"backends":7765,":[":7766,"bum":7767,"Collection":7768,"tics":7769,"ONG":7770,"unctuation":7771,"Formatter":7772,"Ġtransport":7773,"floating":7774,"loyment":7775,"Setting":7776,"ĠFake":7777,"dec":7778,"itude":7779,"preview":7780,"ĠHO":7781,"=('":7782,"fact":7783,"compo":7784,"________":7785,"sections":7786,"Ġunpack":7787,"Agent":7788,"assification":7789,"must":7790,"Ġadding":7791,"cookies":7792,"Ġsha":7793,"Ġordering":7794,"Ġthree":7795,"Ġmapper":7796,"oston":7797,"Ġlinear":7798,"ĠSSL":7799,"Ġ2016":7800,"Step":7801,"CLI":7802,"ADDR":7803,"have":7804,"caten":7805,"2015":7806,"phinx":7807,"got":7808,"Ġgeneric":7809,"Cookie":7810,"contact":7811,"Scope":7812,"ĠQU":7813,"Ġindivid":7814,"Ġ'.'":7815,"ARD":7816,"secure":7817,"otype":7818,"Ġ=================================================================":7819,"Ġ}}\"":7820,"dh":7821,"_):":7822,"GROUP":7823,"Ġaxes":7824,"('/')":7825,"Include":7826,"ĠDefaults":7827,"bra":7828,"Ġ21":7829,"Ġrather":7830,"AddressValue":7831,"produce":7832,"La":7833,"INST":7834,"ond":7835,"Transport":7836,"outer":7837,"Ġmatched":7838,"ĠINC":7839,"eep":7840,"Category":7841,"215":7842,"ĠPY":7843,"Common":7844,"))))":7845,"ĊĠĠĠĠĠĠĠĠĠĠĠĠĊĠĠĠĠĠĠĠĠĠĠĠ":7846,"BL":7847,"star":7848,"Ġpointer":7849,"Folder":7850,"Cer":7851,"Allow":7852,"smart":7853,"Ġnullable":7854,"AMPL":7855,"uan":7856,"Ġ\"\"\")":7857,"Ġruns":7858,"Ġwon":7859,"Ġedi":7860,"ĠĠĠĠĠĠĠĠĠĠĠĠĠĠĠĠĠĠ":7861,"kb":7862,"('#":7863,"SIG":7864,"nr":7865,"peer":7866,"unter":7867,"strap":7868,"Ġones":7869,"vertical":7870,"Ġformatted":7871,"AK":7872,"sol":7873,"Cmd":7874,"Ġ26":7875,"Ġrunner":7876,"band":7877,"echo":7878,"ij":7879,"Ġ\"$":7880,"unCP":7881,"collections":7882,"Ġspaces":7883,"DOCUMENT":7884,"panel":7885,"inger":7886,"xed":7887,"ĠIndexError":7888,"cod":7889,"Ġdefines":7890,"Cleanup":7891,"dicts":7892,"TYPES":7893,"Ġquestion":7894,"zure":7895,"+\\":7896,"\"/>":7897,"regular":7898,"erature":7899,"Grid":7900,"Ġ404":7901,"FD":7902,"čĊĉĉ":7903,"assertAlmostEqual":7904,"ĠConvert":7905,"118":7906,"Ġchecking":7907,"Ġconfigure":7908,"coming":7909,"ĠExp":7910,"but":7911,"Ġwifi":7912,"bob":7913,"Ġpredictions":7914,"theme":7915,"LINK":7916,"SITE":7917,"Ġcost":7918,"limiter":7919,"535":7920,"Implementation":7921,"hooks":7922,"Ġchecked":7923,"queryset":7924,"cross":7925,"Ġdeg":7926,"Track":7927,"gri":7928,"Timer":7929,"rou":7930,"errno":7931,"irror":7932,"curacy":7933,"Ġexecuted":7934,"stand":7935,"reet":7936,"Ġtemporary":7937,"isten":7938,"ople":7939,"It":7940,"WIN":7941,"Popen":7942,"Ġassigned":7943,"ores":7944,"arity":7945,"ASK":7946,"ORIZONT":7947,"payment":7948,"ĠFe":7949,"cryption":7950,"titude":7951,"hd":7952,"Ġarr":7953,"logical":7954,"........":7955,"Ġfragment":7956,"126":7957,"ĠGenerate":7958,"catalog":7959,"Ġ128":7960,"Operator":7961,"Ġdeal":7962,"Raw":7963,"ĠLa":7964,"Exists":7965,"nc":7966,"mtree":7967,"2006":7968,"ining":7969,"Ġpatterns":7970,"Ġremaining":7971,"005":7972,"splitext":7973,"Ġpub":7974,"Ġitertools":7975,"initions":7976,"xs":7977,"Ġthrow":7978,"004":7979,"Permission":7980,"Ġprevent":7981,"CThostFtdc":7982,"rected":7983,"ace":7984,"/(":7985,"çļ":7986,"Ġwarn":7987,"coord":7988,"Named":7989,"ORIZONTAL":7990,"250":7991,"Ġglobals":7992,"_='":7993,"Ġhistory":7994,"connections":7995,"UCT":7996,"&#":7997,"slot":7998,"lities":7999,"Ġscan":8000,"232":8001,"Ġcloud":8002,"ĠLib":8003,"Dest":8004,"finite":8005,"xpath":8006,"lave":8007,"sphinx":8008,"coef":8009,"006":8010,"restore":8011,"Ġri":8012,"Ġsequences":8013,"Analy":8014,"ĠStop":8015,"multip":8016,"radius":8017,"Ġrendered":8018,"UNK":8019,"Ġbackground":8020,"GS":8021,"locations":8022,"Ġprom":8023,"ĠFoo":8024,"Ġcaller":8025,"Ġ51":8026,"Ġmatplotlib":8027,"ĠPerson":8028,"Prober":8029,"Required":8030,"Ġevalu":8031,"coords":8032,"Ġprice":8033,"Ġbetter":8034,"ao":8035,"ĠIF":8036,"Ġservers":8037,".'),":8038,"Ġentire":8039,"386":8040,"stor":8041,"erge":8042,"Ġzer":8043,"Ġretrieve":8044,"DL":8045,"PECIAL":8046,"ji":8047,"ye":8048,"SERT":8049,"roles":8050,"ĠUsed":8051,"Tx":8052,"ĠTag":8053,"registration":8054,"ĠDes":8055,"Routing":8056,"Ġnewline":8057,"Ġrecent":8058,"Ġcross":8059,"mall":8060,"Ġ'':":8061,"rase":8062,"NODE":8063,"Detail":8064,"čĊčĊč":8065,"LEX":8066,"Stub":8067,"ĠBLOCK":8068,"wimax":8069,"Pe":8070,"ADATA":8071,"Ġwrapped":8072,"Aggreg":8073,"Ġretain":8074,"mpath":8075,"za":8076,"ctl":8077,"ATCH":8078,"108":8079,"enticated":8080,"ele":8081,"Ġletter":8082,"/.":8083,"NULL":8084,"rack":8085,"////////////////////////////////////////////////////////////////":8086,"Ġ27":8087,"Ġlonger":8088,"ĠClass":8089,"hw":8090,"Ġbal":8091,"pickle":8092,"lah":8093,"xB":8094,"Ġaverage":8095,"pet":8096,"ulated":8097,"ĠCONTROL":8098,"Ġteam":8099,"ASH":8100,"Ġfrozen":8101,"reply":8102,"Ġdid":8103,"calc":8104,"ĊĠĠĠĠĠĠĠĠĠĠĠĠĠĠĠĠĠĠĠĠĠĠĠĠĠĠĠĠĠĠĠĠĠĠĠĠĠĠĠĠĠĠĠĠĠĠĠĠĠĠĠ":8105,"çļĦ":8106,"ipher":8107,"Cell":8108,"')):":8109,"management":8110,"until":8111,"Ġspeed":8112,"ĠConnection":8113,"sender":8114,"urses":8115,"Ġgtk":8116,"Filename":8117,"Ġvs":8118,">=":8119,"Ġgive":8120,"parame":8121,"tw":8122,"ĠACUTE":8123,"'\\\\":8124,"onal":8125,"Ġcenter":8126,"Ġmag":8127,"2011":8128,"Ġgu":8129,"audio":8130,"rypto":8131,"ĠMARK":8132,"ĠQuery":8133,"Ġdim":8134,"Ġsegment":8135,"today":8136,"Ġeverything":8137,"136":8138,"Ġwhitespace":8139,"Ġam":8140,"ObjectBase":8141,"ĠCloud":8142,"ano":8143,"ĠNotes":8144,"Ġev":8145,"raps":8146,"iterable":8147,"illi":8148,"authors":8149,"\")),":8150,"Ġnoqa":8151,"Ġreturning":8152,"cart":8153,"Install":8154,"Ġ59":8155,"VT":8156,"'),('":8157,"UFF":8158,"emit":8159,"bias":8160,"dy":8161,"ASE":8162,"xC":8163,"ĠHOLDERS":8164,"rename":8165,"Ġnstime":8166,"encoded":8167,"Gen":8168,"Symbol":8169,"operations":8170,"RPC":8171,"ValidationError":8172,"Body":8173,"acquire":8174,"MAIL":8175,"Sample":8176,"Ġ34":8177,"=\\\"":8178,"ĊĠĠĠĠĠĠĠĠĠĠĠĠĠĠĠĠĠĠĠĠĠĠĠĠĠĠĠĠĠĠĠĠĠĠĠĠĠĠĠĠĠĠĠĠĠĠĠĠĠ":8179,"mtime":8180,"Ġtrun":8181,"imation":8182,"calendar":8183,"writeField":8184,"Left":8185,"\"><":8186,"Ġurls":8187,"384":8188,"Ġ'(":8189,"Ġir":8190,"hide":8191,"finish":8192,"EVENT":8193,"]{":8194,"XY":8195,"lexible":8196,"åĲ":8197,"Bind":8198,"SN":8199,"Ġinventory":8200,"Ġbeta":8201,"ESIS":8202,"MULT":8203,"ĠForm":8204,"RC":8205,"Uan":8206,"Ġedges":8207,"trunc":8208,"lify":8209,"har":8210,"Ġpermitted":8211,"Ġindividual":8212,"servation":8213,"Ġmetavar":8214,"mkdir":8215,"501":8216,"ĠUSA":8217,"ĠSCons":8218,"Ġconside":8219,"perm":8220,"prox":8221,"activate":8222,"FB":8223,"Ġneutron":8224,"GP":8225,"ĠBoston":8226,"Interval":8227,"ĠMax":8228,"Save":8229,"Ġcurr":8230,"uab":8231,"ĠSkip":8232,"cipe":8233,"tester":8234,"ordered":8235,"AMPLES":8236,"ndarray":8237,"METHO":8238,"Ġstarted":8239,"activity":8240,"iform":8241,"Ġcounts":8242,"uac":8243,"irth":8244,"ĠVERT":8245,"ENTIAL":8246,"Ġdocuments":8247,"BUILD":8248,"Fake":8249,"olds":8250,"150":8251,"Rect":8252,"VEN":8253,"Please":8254,"007":8255,"ĠCal":8256,"Stats":8257,"windows":8258,"ĠManagement":8259,"Ġconv":8260,"Ġtenant":8261,"003":8262,"Environment":8263,"Ġ84":8264,"Ġinitialize":8265,"Ġdom":8266,"ĠVERTICAL":8267,"edx":8268,"2000":8269,"tor":8270,"ĠStream":8271,"MESSAGE":8272,"rea":8273,"crypted":8274,"cleaned":8275,"235":8276,"eps":8277,"pow":8278,"REF":8279,"DED":8280,"ĠArticle":8281,"čĊĠĠĠĠĠĠĠĠĠĠĠĠĠĠĠĠĠĠĠĠĠĠĠ":8282,"spam":8283,"tick":8284,"BY":8285,"visor":8286,"Ġinherit":8287,"Ġcwd":8288,"Ġfid":8289,"Ġ400":8290,"Ġchunks":8291,"Ġstuff":8292,"deepcopy":8293,"ARGET":8294,"ĠĠĠĠĠĠĠĠĠĠĠĠĠĠĠĠĠ":8295,"callable":8296,"Ġhandlers":8297,"Ġmuch":8298,"ĊĉĊ":8299,"Success":8300,"udb":8301,"good":8302,"ĠStr":8303,"through":8304,"bottom":8305,"254":8306,"ĠGeneric":8307,"Ġinline":8308,"Inte":8309,"Append":8310,"thumbnail":8311,"135":8312,"xD":8313,"METADATA":8314,"Ġ2006":8315,"/<":8316,"à¤¾":8317,"([('":8318,"reat":8319,"urtle":8320,"Ġenough":8321,"ndim":8322,"stics":8323,"lencode":8324,"ĠPass":8325,"Decoder":8326,"entities":8327,"Ġhint":8328,"lopen":8329,"ĊĊĊĠ":8330,"//////":8331,"rst":8332,".],":8333,"mq":8334,"Ġsqlalchemy":8335,"Ġdynamic":8336,"Ġhashlib":8337,"msvs":8338,"2001":8339,"`:":8340,"setText":8341,"326":8342,"Ġreplacement":8343,"Ġfire":8344,"setter":8345,"uad":8346,"makedirs":8347,"Ġdiag":8348,"serializer":8349,"Ġdepends":8350,"ĠAb":8351,"Ġ{}\".":8352,"Ġ2004":8353,"ĠCompute":8354,"('')":8355,"certs":8356,"Regexp":8357,"padding":8358,"seg":8359,"ĠSp":8360,"stone":8361,"ĠImp":8362,"Ġlibraries":8363,"ighted":8364,"Ġchars":8365,"CREATE":8366,"Ġmigration":8367,"intain":8368,"adow":8369,"accounts":8370,"xfe":8371,"Ġmonitor":8372,"dx":8373,"rective":8374,"Ġ77":8375,"ffic":8376,"Ġthing":8377,"ĠHE":8378,"åħ":8379,"Cor":8380,"Ð¾Ð":8381,"pts":8382,"çĶ":8383,"zon":8384,"gtest":8385,"Ġinterfaces":8386,"air":8387,"ĠCustom":8388,"Defini":8389,"ABC":8390,"GT":8391,"gw":8392,"randint":8393,"ĠOptions":8394,"inel":8395,"Ġlat":8396,"serialized":8397,"dv":8398,"black":8399,"è¯":8400,"irt":8401,"Ġfloating":8402,"ÙĦ":8403,"ranges":8404,"Internal":8405,"WORK":8406,"Limit":8407,"allation":8408,"lide":8409,"ĊĊĠĠ":8410,"#////////////////////////////////////////////////////////////////":8411,"Machine":8412,"Ġear":8413,"OUTPUT":8414,"CallbackImpl":8415,"Part":8416,"Ġcontributors":8417,"Ġmaterials":8418,"hours":8419,"saved":8420,"repository":8421,"Accept":8422,"'>":8423,"Ġboundary":8424,"334":8425,"#//////////////////////////////////////////////////////////////////////":8426,"compiled":8427,"čĊĠĠĠĠ":8428,":],":8429,"thrift":8430,"Ġtok":8431,"CURE":8432,"Multiple":8433,"Ġcompat":8434,"pixel":8435,"Height":8436,"Ġserialize":8437,"Arch":8438,"Ġimported":8439,"qt":8440,"Ġ\\\"":8441,"lick":8442,"energy":8443,"frames":8444,"ni":8445,"Ġpoly":8446,"Backend":8447,"Ġ{{":8448,"ĠMatrix":8449,"libs":8450,"ucc":8451,"major":8452,"ILE":8453,"ï¼":8454,"Ġexpressions":8455,"ENS":8456,"Ġprompt":8457,"Abstract":8458,"rol":8459,"additional":8460,"SHA":8461,"migrate":8462,"Constraint":8463,"velopment":8464,"ĠCl":8465,"ĠLanguage":8466,"ĠPol":8467,"Enter":8468,"Ġrepresents":8469,"PA":8470,"squ":8471,"THON":8472,"globals":8473,"Ñģ":8474,"BLOCK":8475,"jpg":8476,"âĢ":8477,"igen":8478,"Same":8479,"]\"":8480,"Hook":8481,"Ġscen":8482,"897":8483,"Ġnx":8484,"Ġinvoice":8485,"Ġcover":8486,"flatten":8487,"160":8488,"initialize":8489,"ANSIBLE":8490,"Ġcreates":8491,"-#":8492,"Language":8493,"Ġiteration":8494,"ĠTask":8495,"ĠDelete":8496,"()``":8497,"Ġboot":8498,"Imp":8499,"Ġservices":8500,"clause":8501,"Ġclause":8502,"Ġidentity":8503,"Ġmu":8504,"ĠValidationError":8505,"whitespace":8506,"301":8507,"Classifier":8508,"Ġgeo":8509,"FieldDescriptor":8510,"ĠState":8511,"openstack":8512,"GGER":8513,"construct":8514,"sale":8515,"Properties":8516,"Station":8517,"ĠCHAR":8518,"sect":8519,"Ġtrailing":8520,"GTH":8521,"Ġ\\\\":8522,"mid":8523,"Engine":8524,"ully":8525,"Ġnb":8526,"138":8527,"riend":8528,"Shell":8529,"%%":8530,"Ġklass":8531,"chemas":8532,"304":8533,"merica":8534,"atar":8535,"average":8536,"allenge":8537,"ĠPri":8538,"Ġconnected":8539,"ĠĠĠĠĠĠĠĠĠĠĠĠĠĠĠĠĠĠĠ":8540,"Ġflavor":8541,"consumer":8542,"istogram":8543,"anging":8544,"Ġsimilar":8545,"Ġ!":8546,"comparison":8547,"Proto":8548,"CAP":8549,"Multicast":8550,"302":8551,"Ġbackwards":8552,"jected":8553,"hat":8554,"Setup":8555,"peak":8556,"647":8557,"USED":8558,"Ġconsole":8559,"atforms":8560,"Expr":8561,"Ġmm":8562,"chdir":8563,"Compute":8564,"Na":8565,"inator":8566,"Ġmut":8567,"xyz":8568,"Ġimmediate":8569,"Ġftype":8570,"ball":8571,"AndReturn":8572,"digit":8573,"Ġui":8574,"dependency":8575,"CLA":8576,"dentifiers":8577,"review":8578,"Ġcatch":8579,"Distribution":8580,"009":8581,"Ġperf":8582,"widgets":8583,"Dec":8584,"since":8585,"Ġjs":8586,"Pick":8587,"atype":8588,"examples":8589,"strategy":8590,"PositiveIntegerField":8591,"ĊĊĠĠĠĠĠĠĠĠĠ":8592,"Ġ(@":8593,"('',":8594,"avg":8595,"ĠSession":8596,"Ġsol":8597,"Dep":8598,"Package":8599,"Ter":8600,"CCE":8601,"aliases":8602,"Ġconversion":8603,"PacketMetadata":8604,"Ġgeneral":8605,"seen":8606,"[]":8607,"čĊĠĠĠĠĠ":8608,"FIELD":8609,"Loss":8610,"ARB":8611,"ĠControl":8612,"Ġ{}),":8613,"stage":8614,"udd":8615,"tmpdir":8616,"setitem":8617,"unused":8618,"sites":8619,"Ġweek":8620,"supp":8621,"ornado":8622,"Ġparents":8623,"php":8624,"checks":8625,"Ġrect":8626,"estimator":8627,"Memory":8628,"Sparse":8629,"ussian":8630,"Connect":8631,"Other":8632,"Ġpay":8633,"ObjectFactory":8634,"Ġssh":8635,")|":8636,">`":8637,"ÛĮ":8638,"ridden":8639,"Validator":8640,"ierarchy":8641,"Ġ(<":8642,"Ġcycle":8643,"mysql":8644,"Notify":8645,"Ġprobably":8646,"Windows":8647,"------":8648,"Ġbecome":8649,"_'":8650,"ĠBlock":8651,"Ġconsidered":8652,"utions":8653,"edu":8654,"ĠSINGLE":8655,"SK":8656,"vile":8657,"atory":8658,"Ġrout":8659,"Section":8660,"Ġverbosity":8661,"008":8662,"Ġshare":8663,"2009":8664,"border":8665,"Iteration":8666,"uca":8667,"ĠshowIndent":8668,"finished":8669,"VICES":8670,"Ġcalculate":8671,"Xml":8672,"Help":8673,"Zip":8674,"ninja":8675,"NodeContainer":8676,"CACHE":8677,"Ġchr":8678,"Ġaltern":8679,"['_":8680,"Zero":8681,"EY":8682,"Ġplan":8683,"-------------":8684,"Ġ35":8685,"Ġapps":8686,"Listen":8687,"}),":8688,"Ġemit":8689,"ĠHandle":8690,"Ġoptparse":8691,"ĠDatabase":8692,"ARE":8693,"Fin":8694,"cov":8695,"Book":8696,"Ġloading":8697,"»å":8698,"EE":8699,"Ġ;":8700,"xcode":8701,"ĠØ":8702,"ĠDIRECT":8703,"cons":8704,"neg":8705,"Ġpor":8706,"portal":8707,"Unexpected":8708,"resize":8709,"defs":8710,"ND":8711,"\\\\\\\\":8712,"\"]=":8713,"PFN":8714,"ners":8715,"ets":8716,"Ġreplaced":8717,"objs":8718,",%":8719,"Ġ'?":8720,"spi":8721,"Ġmanual":8722,"TABLE":8723,"ĠHORIZONTAL":8724,"ĠArray":8725,"hard":8726,"INIT":8727,"Ġmx":8728,"ĠINTER":8729,"ĠSearch":8730,"224":8731,"Ġschedule":8732,"Ġ00":8733,"bitrary":8734,"Virtual":8735,"umeration":8736,"inct":8737,"](":8738,"attemp":8739,"čĊĠĠĠĠĠĠĠĠ":8740,"tabs":8741,"roke":8742,"à¥į":8743,"Ġsolution":8744,"SW":8745,"silon":8746,"ĠRet":8747,"asarray":8748,"Ġplease":8749,"ACTER":8750,"Ed":8751,"Ġhidden":8752,"Ġstati":8753,"urther":8754,"repeat":8755,"erkzeug":8756,"UUID":8757,"Ġconven":8758,"variant":8759,"COUNT":8760,"ĠPOST":8761,"033":8762,"Ġgs":8763,"ens":8764,"Ġthreshold":8765,"CLAIM":8766,"ĠToken":8767,"demo":8768,"fixtures":8769,"aemon":8770,"+)":8771,"=\"\",":8772,"ĠOrderedDict":8773,"łģ":8774,"Ġcollect":8775,"#####":8776,"ĠWith":8777,"Ġsensor":8778,"ĠPermission":8779,"Ġ36":8780,"Bounded":8781,"creation":8782,"AttributeAccessor":8783,"FAIL":8784,"Ġliteral":8785,"loading":8786,"gid":8787,"prod":8788,"Ġexcluded":8789,"ĠCa":8790,"Ġalt":8791,"Ġsuccessfully":8792,"Ġunderlying":8793,"Ġregard":8794,"assertNotIn":8795,"pw":8796,"FTDC":8797,"([],":8798,"dirty":8799,"vanced":8800,"()).":8801,"ĠCho":8802,"TOKEN":8803,"bib":8804,"='/":8805,"Ġ99":8806,"lerance":8807,"OPTIONS":8808,"Ġhttplib":8809,"ki":8810,"keras":8811,"Ġseg":8812,"decoder":8813,"Namespace":8814,"tcp":8815,"MOD":8816,"ussion":8817,"Codec":8818,"DOWN":8819,"ĠSPECIAL":8820,"STIT":8821,"ov":8822,"Ġeditor":8823,"Additional":8824,"rical":8825,"Ġproblems":8826,"Ġld":8827,"Ġsever":8828,"herited":8829,"uniform":8830,"shutdown":8831,"ORM":8832,"algorithm":8833,"semble":8834,"fw":8835,"Ġruntime":8836,"Ġeasy":8837,"volumes":8838,"Ġlatest":8839,"Ġexactly":8840,"America":8841,"Batch":8842,"pus":8843,"Ġbundle":8844,"103":8845,"Ġhomeassistant":8846,"}{":8847,"quota":8848,"Null":8849,"Ġcols":8850,"VERT":8851,"Ġwhole":8852,"Ġæ":8853,"401":8854,"associ":8855,"workflow":8856,"ĠBad":8857,"books":8858,"parents":8859,"Ġhandled":8860,"NUMB":8861,"Split":8862,"ĠMovedAttribute":8863,"Ġyaml":8864,"Ġdifference":8865,"fidence":8866,"219":8867,"Ġdoctest":8868,"Ġpred":8869,"Ġface":8870,"={\"":8871,"mazon":8872,"Ġports":8873,"scheduler":8874,"ĠGeo":8875,"Ġcopied":8876,"tracker":8877,"Ġpercent":8878,"Ġtheme":8879,"Login":8880,"177":8881,"Db":8882,"ĠInte":8883,"PK":8884,"hot":8885,"Win":8886,"ynomial":8887,"union":8888,"Ġslug":8889,"CCEED":8890,"Ġ\\'":8891,"ĠĊĠĠĠĠĠĠĠĠĠĠĠĠĠĠĠ":8892,"STRUCT":8893,"Ġ\"\"\"<":8894,"STITUTE":8895,"cpus":8896,"Ġmultip":8897,"ENABLE":8898,"TIMEOUT":8899,"Ġtw":8900,"Ġ|=":8901,"remain":8902,"coeff":8903,"Ġsender":8904,"attachment":8905,"categories":8906,"former":8907,"Wor":8908,"REAM":8909,"Ġ[{":8910,"formatter":8911,"depends":8912,"WifiMac":8913,"leaf":8914,"ftp":8915,"titles":8916,"Ġvisible":8917,"EXAMPLES":8918,"maps":8919,"Ġoccurred":8920,"II":8921,"mpling":8922,"jection":8923,"started":8924,"Ġimports":8925,"Ġser":8926,"Ġincorrect":8927,"checksum":8928,"Ġspecification":8929,"Conf":8930,"Ġrelationship":8931,"Ġgreater":8932,"codecs":8933,"Bound":8934,"fire":8935,"CHECK":8936,"Ġ2009":8937,"written":8938,"literal":8939,"Ln":8940,"figure":8941,";'":8942,"Ġestimator":8943,"ĠBook":8944,"anity":8945,"semb":8946,"IMP":8947,"DOCUMENTATION":8948,"ante":8949,"Ġnumeric":8950,"modify":8951,"iny":8952,"unexpected":8953,"Icon":8954,"ĠSUCCEED":8955,"sensor":8956,"stubs":8957,"vv":8958,"Ġbel":8959,"ended":8960,"pd":8961,"ĊĠĠĠĠĠĠĠĠĠĠĠĠĠĠĠĠĠĠĠĠĠĠĠĠĠĠĠĠĠĠĠĠĠĠĠĠĠĠĠĠĠĠĠĠĠĠĠĠĠĠ":8962,"Ġplugins":8963,"__))":8964,"positive":8965,"Ġcontact":8966,"çłģ":8967,"Ġclick":8968,"Ġ\"*":8969,"Ġoverwrite":8970,"Ġplain":8971,"Site":8972,"rfc":8973,"ANY":8974,"OIN":8975,"Ġflush":8976,"Ġasset":8977,"Ġ[%":8978,"NECTION":8979,"DA":8980,"tified":8981,"164":8982,"Ġcoordinates":8983,"pread":8984,"Ġrpc":8985,"ĠVAL":8986,"published":8987,"314":8988,"___":8989,"ĠDISCLAIM":8990,"ĠGE":8991,"Ġred":8992,"Cursor":8993,"PFNGL":8994,"?\\":8995,"tip":8996,"kill":8997,"migration":8998,"<<":8999,"Ġ*=":9000,"imen":9001,"IBILITY":9002,"ĠCIR":9003,"WA":9004,"Ġ'{}":9005,"Ġabstract":9006,"candidate":9007,"\"')":9008,"Ġstdin":9009,"fk":9010,"ANGE":9011,"ÙĪ":9012,"Ġ199":9013,"274":9014,"ostream":9015,"Ġ[{'":9016,"Ġdirname":9017,"---+":9018,"chart":9019,"SEQUENTIAL":9020,"AIN":9021,"ĠURI":9022,"Ġcountry":9023,"ĠLIGHT":9024,"Ġcompatible":9025,"icrosoft":9026,"ĠEOF":9027,"Ġtranslate":9028,"Testing":9029,"ashes":9030,"Ġimplements":9031,"PASSWORD":9032,"Ġmaps":9033,"Ġinstanti":9034,"Ġ``__":9035,"Ġfacts":9036,"FITS":9037,"Ġrng":9038,"xFF":9039,"Ġchecksum":9040,"cells":9041,"Full":9042,"rator":9043,"clared":9044,"Ġentities":9045,"[[":9046,"Fi":9047,"Ġbottom":9048,"TEXTNS":9049,"orse":9050,"åĪ":9051,"Ġemp":9052,"manage":9053,"Choice":9054,"ĠISO":9055,"130":9056,"ABIC":9057,"Ġcleanup":9058,"CONTEXT":9059,"PN":9060,"coin":9061,"alect":9062,"Ġ-----":9063,"'ve":9064,"Ġè":9065,"Ġrestore":9066,"Ġtax":9067,"ĊĉĉĊĉ":9068,"shapes":9069,"ĠAssertionError":9070,"organization":9071,"tenv":9072,"Ġdiv":9073,"ĠTR":9074,"ĠMethod":9075,"Ġcodec":9076,"æĪ":9077,"azure":9078,"Ġ2008":9079,"Ġdisplayed":9080,"Ġfailures":9081,"inted":9082,"Cancel":9083,"0000000":9084,"Ġrhs":9085,"dictionary":9086,"Ġlar":9087,"Ġgtest":9088,"Cloud":9089,"']):":9090,"aj":9091,"quential":9092,"Expression":9093,"ĠUTF":9094,"imators":9095,"ised":9096,"('^":9097,"frappe":9098,"that":9099,"Ġls":9100,"ĠPrint":9101,"ĠLOSS":9102,"ĠSUBSTITUTE":9103,"Ġpeer":9104,"does":9105,"Ġcast":9106,":\")":9107,"Ġsoup":9108,"Ġ/></":9109,"ĠCONSEQUENTIAL":9110,"044":9111,"Ġç":9112,"Ġol":9113,"coordin":9114,"wt":9115,"Ġsetuptools":9116,"tral":9117,"pretty":9118,"tector":9119,"pectrum":9120,"Right":9121,"Ġdeli":9122,"ParseError":9123,"!\")":9124,"ODE":9125,"Ġindicates":9126,"LENGTH":9127,"Ġreceive":9128,"uro":9129,"wrapped":9130,"Compiler":9131,"Ġcomparison":9132,"Ġrecursive":9133,"ĠTensorFlow":9134,"TraceSourceAccessor":9135,"ESPACE":9136,"Ġ90":9137,"ĠGiven":9138,"WITH":9139,"binding":9140,"ĠMAX":9141,"tif":9142,"Ġfunctools":9143,"ĊĠĠĠĠĠĠĠĠĠĠĠĠĠĠĠĠĠĠĠĠĠĠĠĠĠĠĠĠĠĠĠĠĠĠĠĠĠĠĠĠĠĠĠĠĠĠĠĠĠĠĠĠĠĠĠ":9144,"uspend":9145,"Ġserializer":9146,"izing":9147,"DULE":9148,"Ġdocs":9149,"Ġarea":9150,"Ġretval":9151,"=============":9152,"***":9153,"uv":9154,"Cap":9155,"Cy":9156,"gre":9157,"Ġfinished":9158,"IGENCE":9159,"}:":9160,"quality":9161,"Ġborder":9162,"Ġrespon":9163,"Ġshown":9164,"NOWN":9165,"Video":9166,"Used":9167,"ĠINDIRECT":9168,"Est":9169,"clusters":9170,"WARNING":9171,"Ġreproduce":9172,"ĠGOO":9173,"Ġstarts":9174,"ĠARABIC":9175,"Ġspecifying":9176,"ectors":9177,"mmutable":9178,"GLIGENCE":9179,"Ġsubclasses":9180,"aff":9181,"Ġblob":9182,"Ġresulting":9183,"Program":9184,"NONE":9185,"Ġleading":9186,"terms":9187,"hf":9188,"Ġmarkup":9189,"NUMBER":9190,"mitive":9191,"Ht":9192,"Ġpygame":9193,"BRE":9194,"ĠAuto":9195,"difference":9196,"ĠPBX":9197,"roper":9198,"Ġmk":9199,"isis":9200,"ticket":9201,"Ġgran":9202,"communic":9203,"funcs":9204,"DataFrame":9205,"ĠPROFITS":9206,"ios":9207,"hg":9208,"aste":9209,"\"][":9210,"096":9211,"Ġqueries":9212,"Ġ#@":9213,"Ġdocstring":9214,"ĠConstruct":9215,"Render":9216,"mongo":9217,"prec":9218,"Ġgame":9219,"Ġfreq":9220,"æķ":9221,"Ġprece":9222,"always":9223,"ffered":9224,"113":9225,"received":9226,"Ġimplicit":9227,"posix":9228,"Ġcolors":9229,"aller":9230,"cipher":9231,"Standard":9232,"reload":9233,"fileobj":9234,"Ġcomputed":9235,"Ġrefresh":9236,"Ġnargs":9237,"Ġargv":9238,"dating":9239,"ĠOrder":9240,"alert":9241,"rmtree":9242,"Ġextended":9243,"Ġ\"@":9244,"Ġchannels":9245,"kes":9246,"namespaces":9247,"Ġwebpage":9248,"CM":9249,"Ġduplicate":9250,"Uns":9251,"218":9252,"Ġtp":9253,"ĠNEGLIGENCE":9254,"segment":9255,"ubb":9256,"LP":9257,"gramming":9258,"dll":9259,"heb":9260,"2016":9261,"metrical":9262,"POS":9263,"sb":9264,"Ġ=>":9265,"Ġer":9266,"normpath":9267,"TARGET":9268,"letter":9269,"Console":9270,"Dataset":9271,"Characters":9272,"moo":9273,"ĠSolution":9274,"Ġprepare":9275,"codec":9276,"sdk":9277,"Static":9278,"ĠWSGI":9279,"=''):":9280,"iden":9281,"Ġweak":9282,"QUAL":9283,"Ġfew":9284,"manual":9285,"swap":9286,"=\"\"":9287,"Ġcond":9288,"GEN":9289,"xp":9290,"addon":9291,"grams":9292,"CallbackImplBase":9293,"SyntaxError":9294,"See":9295,"Ġshouldn":9296,"Ġindicating":9297,"Errors":9298,"jac":9299,"2008":9300,"ĠKEY":9301,"pull":9302,"Actions":9303,"Ġcirc":9304,"tok":9305,"UPT":9306,"Ġtransfer":9307,"__(*":9308,"FUN":9309,"Ġ=====":9310,"Ġcancel":9311,"sibly":9312,"((\"":9313,"Ġspecifies":9314,"ĠARE":9315,"lays":9316,"soup":9317,"UES":9318,"ĠOp":9319,"Ġresponses":9320,"need":9321,"ĠThey":9322,"Django":9323,"Ġangle":9324,"locked":9325,"ĠĠĠĠĠĠĠĠĠĠĠĠĠĠĠĠĠĠĠĠ":9326,"159":9327,"Ġlearning":9328,"Ġsimply":9329,"Ġfunctionality":9330,"AU":9331,"aring":9332,"quent":9333,"GetValue":9334,"217":9335,"ĠSince":9336,"theta":9337,"ĠCurrent":9338,"phone":9339,"annotation":9340,"catch":9341,"Ġscores":9342,"RUPT":9343,"Ġquotes":9344,"Initialize":9345,"Init":9346,"encoder":9347,"Ġslot":9348,"ĊĠĠĠĠĠĠĠĠĠĠĠĠĠĠĠĠĠĠĠĠĠĠĠĠĠĠĠĠĠĠĠĠĠĠĠĠĠĠĠĠĠĠĠĠĠĠĠĠĠĠĠĠ":9349,"locals":9350,"Ġreply":9351,"Ġevaluate":9352,"sione":9353,"Pbb":9354,"rices":9355,"dates":9356,"ĠCOPY":9357,"EMPL":9358,"ISED":9359,"ç»":9360,"ĠWork":9361,"Ġradius":9362,"Ġdense":9363,"Ġmesh":9364,"credit":9365,"ĠLay":9366,"ptime":9367,"limits":9368,"atis":9369,"strong":9370,"Ġacross":9371,"ä¸Ģ":9372,"alloc":9373,"tzinfo":9374,"upgrade":9375,"LOB":9376,"bulk":9377,"Ġflatten":9378,"precationWarning":9379,"ĠNS":9380,"bile":9381,"ĠAttributes":9382,"()])":9383,"=_(\"":9384,"aniti":9385,"anned":9386,"community":9387,"ĠFilter":9388,"Flexible":9389,"RUN":9390,"receive":9391,"Received":9392,"Ġlayers":9393,"Ġtaken":9394,"Ġminutes":9395,"SIGN":9396,"2005":9397,"gral":9398,"Ġ*/\\":9399,"Decode":9400,"subset":9401,"ads":9402,"cases":9403,"Ġ33":9404,"uba":9405,"tially":9406,"OTE":9407,"264":9408,"0000000000000000":9409,"MAC":9410,"ĠBoolean":9411,"sigma":9412,"Ġpending":9413,"itch":9414,"ENC":9415,"execution":9416,"Generic":9417,"ERY":9418,"concat":9419,"]}":9420,"Ġcoefficient":9421,"assertIsNot":9422,"ssue":9423,"TagBuffer":9424,"0002":9425,";\"":9426,"decl":9427,"Ġct":9428,"ingerprint":9429,"fid":9430,"BIN":9431,"Ġseparator":9432,"ĠSec":9433,"ĠExec":9434,"Ġsleep":9435,"SerializeToString":9436,"Ġfollowed":9437,"IMAGE":9438,"BAD":9439,"Tags":9440,"includes":9441,"ĠThen":9442,"tential":9443,"Ġtxt":9444,"Ġhaving":9445,"Ġintegers":9446,"tency":9447,"/(?":9448,"serted":9449,"JzKet":9450,"Ġconsume":9451,"perf":9452,"ĊĊĠĠĠĠĠĠĠĠĠĠĠĠĠĠĠĠĠĠĠĠĠĠĠ":9453,"VC":9454,"Ġes":9455,"Ġyes":9456,"mx":9457,"getcwd":9458,"Ġ{\\":9459,"----------":9460,"01234":9461,"tively":9462,"Ġepoch":9463,"etree":9464,"lenium":9465,"syn":9466,"matching":9467,"nat":9468,"SOCK":9469,"ĠContext":9470,")\"\"\"":9471,"FILES":9472,"guid":9473,"ç±":9474,"addWidget":9475,"Ġpassing":9476,"rieve":9477,"allet":9478,"Ġcodes":9479,"Ġlocals":9480,"REC":9481,"schemas":9482,"Ġtail":9483,"STREAM":9484,"222":9485,"Ġgc":9486,"Ġ'%(":9487,"2007":9488,"-+-+":9489,"cade":9490,"patial":9491,"routing":9492,"gc":9493,"uz":9494,"Ignore":9495,"ĠSelect":9496,"Align":9497,"ĠMust":9498,"Ġ{}'.":9499,"RU":9500,"ency":9501,"ĠCHARACTER":9502,"kl":9503,"uncp":9504,"xxxxxxxx":9505,"Ġosv":9506,"riginal":9507,"pared":9508,"Ġenter":9509,"Ġ\"(('":9510,"inations":9511,"Ġsuccessful":9512,"Ġfr":9513,">[":9514,"Fixed":9515,"ĠAdmin":9516,"RESULT":9517,"cha":9518,"Ġguess":9519,"(\".":9520,"ĠADV":9521,"Ġfrozenset":9522,"010":9523,"HOME":9524,"rad":9525,"332":9526,"Ġ------------------------------------------------":9527,"bridge":9528,"=\\":9529,"Ġef":9530,"Ġaggregate":9531,"xef":9532,"purchase":9533,"ĠBUS":9534,"assertContains":9535,"polation":9536,"AER":9537,"',)":9538,"!\"":9539,"arest":9540,"drive":9541,"xec":9542,"Ġatol":9543,"episode":9544,"Ġmerged":9545,"Ġstage":9546,"hyper":9547,"confirm":9548,"bet":9549,"FlexibleForeignKey":9550,"Long":9551,"Ġabsent":9552,"tention":9553,"javascript":9554,"=\"/":9555,"TagIterator":9556,"INTEG":9557,"Condition":9558,"Ġmacro":9559,"Ġsyn":9560,"Ġtol":9561,"Util":9562,"Ġunused":9563,"WNER":9564,"Ġconstraints":9565,"xbf":9566,"Ġfallback":9567,"aming":9568,"='%":9569,"017":9570,"ĠRandom":9571,"ĠRed":9572,"ucb":9573,"ufb":9574,"paren":9575,"ĠGET":9576,"ESSION":9577,"Ġfinish":9578,">\")":9579,"measure":9580,"Cluster":9581,"lsdb":9582,"PROTOCOL":9583,"Ġadds":9584,"iness":9585,"ĠJava":9586,"ade":9587,"Ġsmal":9588,"Processing":9589,"Ġcar":9590,"EMENT":9591,"Ġdialog":9592,"Ġbasename":9593,"typedef":9594,"Assign":9595,"INTEGER":9596,"clock":9597,"termine":9598,"ĠEnd":9599,"Ġeas":9600,"Ġ300":9601,"Running":9602,"tistics":9603,"Ġxmlns":9604,"Ġjournal":9605,"Pop":9606,"ĠDeveloper":9607,"Ġbeginning":9608,"transfer":9609,"Ġlogs":9610,"codings":9611,"ĠACTION":9612,"mpo":9613,"Ġfamily":9614,"Ġ48":9615,"Screen":9616,"Ġlazy":9617,"nsecs":9618,"Ġretrie":9619,"ĠPOSS":9620,"sembly":9621,"ĉĉĉ":9622,"ORMAL":9623,"inity":9624,"Release":9625,"Ġwatch":9626,"Ġfun":9627,"Ġdisp":9628,"large":9629,"ĠEmpty":9630,"alive":9631,"bounds":9632,"btn":9633,"cxx":9634,"Ġmanage":9635,"tios":9636,"Reset":9637,"Ġ\"\"\"\\":9638,"INESS":9639,"reated":9640,"Series":9641,"ldap":9642,"Ġjobs":9643,"ĠSTRICT":9644,"Ġskipped":9645,"square":9646,"ĠGa":9647,"su":9648,"stmt":9649,"margin":9650,"Play":9651,"vides":9652,"Json":9653,"Draw":9654,"Ġreactor":9655,"Fn":9656,"Ġnormalized":9657,"Ġfigure":9658,"cognized":9659,"bri":9660,"Ġlogic":9661,"bian":9662,"CONTENT":9663,"foobar":9664,"health":9665,"legal":9666,"upported":9667,"ĠĠĠĠĠĠĠĠĠĠĠĠĠĠĠĠĠĠĠĠĠĠ":9668,"216":9669,"bolic":9670,"Ġgeom":9671,"ĠMap":9672,"AERESIS":9673,"MIS":9674,"Ġtmpl":9675,"swig":9676,"RETURN":9677,"IDENTAL":9678,"Ġcen":9679,"ĠDIAERESIS":9680,"fg":9681,"Ġoutside":9682,"ĠWAY":9683,"readlines":9684,"ĠCOPYING":9685,"Encode":9686,"230":9687,"land":9688,"Ġdoing":9689,"tokenQueue":9690,"ĠADVISED":9691,"INVALID":9692,"finity":9693,"clf":9694,"Ġcategories":9695,"Ġdetect":9696,"Ġarbitrary":9697,"Ġformatter":9698,"Assert":9699,"Ġdec":9700,"ĠFormat":9701,"vpn":9702,"unnamed":9703,"ĠEVEN":9704,"ixVector":9705,"ĠDISCLAIMED":9706,"../../":9707,"Ġ2017":9708,"Ġcompleted":9709,"providers":9710,"ĠEnvironment":9711,"ĠSUCH":9712,"ĠINTERRUPT":9713,"ĠSERVICES":9714,"Ġtimer":9715,"ĠINCIDENTAL":9716,"ragma":9717,"cion":9718,")``":9719,"Ġ74":9720,"Clear":9721,"[%":9722,"levant":9723,"UUUU":9724,"Ġoauth":9725,"ĠPOSSIBILITY":9726,"parametri":9727,"increment":9728,"æĺ¯":9729,"TS":9730,"TOOL":9731,"ADD":9732,"logo":9733,"rr":9734,"TCP":9735,"odv":9736,"Constant":9737,"ĠHowever":9738,"ĠStandard":9739,"MSG":9740,"GA":9741,"Ġmasked":9742,"dashboard":9743,"CMD":9744,"ny":9745,"stan":9746,"dae":9747,"ĠBUSINESS":9748,"typ":9749,"ĠCre":9750,"robot":9751,"mgmt":9752,"~~~~~~~~~~~~~~~~":9753,"MEDI":9754,"ubf":9755,"domains":9756,"STEM":9757,".</":9758,"Ġselector":9759,"Ġrequirements":9760,"kg":9761,"ĠDummy":9762,"uaf":9763,"ĠGOODS":9764,"cas":9765,"WEVER":9766,"Ġsile":9767,"Ġbases":9768,"ĠRO":9769,"graphic":9770,"bold":9771,"Ġarticle":9772,"graphy":9773,"Ġ'$(":9774,"Ġmeasure":9775,"EMPLARY":9776,"CAS":9777,"Ctrl":9778,"Pr":9779,"\\\\\\":9780,"ĠRel":9781,"analytic":9782,"lg":9783,"ĠDAMAGE":9784,"ĠSto":9785,"ucf":9786,"Vertex":9787,"youtube":9788,"Ùħ":9789,"Ġconsumer":9790,"PH":9791,"WH":9792,"Ġhit":9793,"Ġcos":9794,"ĠStatus":9795,"Ġgettext":9796,"Ġalph":9797,"ctypes":9798,"listener":9799,"MPTY":9800,"Ġassignment":9801,"ĠHOWEVER":9802,"239":9803,"aper":9804,"ĠInt":9805,"Ġfiltered":9806,"'/":9807,"curr":9808,"ŀĭ":9809,"erce":9810,"=[]":9811,"ĠAllow":9812,"Ġorm":9813,"ĠMatch":9814,"ĠTHEORY":9815,"Migration":9816,"ĠCAUSED":9817,"working":9818,"wizard":9819,"material":9820,"ĠFL":9821,"CallbackBase":9822,"supports":9823,"Ass":9824,"Ġplaces":9825,"xbd":9826,"ĠOP":9827,"lar":9828,"Ġsin":9829,"defineDict":9830,"ĠINTERRUPTION":9831,"Ġcontin":9832,"verbosity":9833,"Ġstatements":9834,"Ġcach":9835,"ĠEXEMPLARY":9836,"ĠPROCURE":9837,"ĠPROCUREMENT":9838,"AX":9839,"sively":9840,"subs":9841,"Ġcertain":9842,"fileno":9843,"ancy":9844,"WID":9845,"Example":9846,"commen":9847,"Ġfurther":9848,"fox":9849,"launch":9850,"FLEX":9851,"spark":9852,"struc":9853,"Ġvariant":9854,"conditions":9855,"Chunk":9856,"Ġfrequency":9857,"-----":9858,"'\")":9859,"bank":9860,"Ġparallel":9861,"144":9862,"Lines":9863,"tiny":9864,"ynchronous":9865,"strptime":9866,"Optim":9867,"OBJECT":9868,"predictions":9869,"ubc":9870,"Mod":9871,"Ġxmodule":9872,"240":9873,"Any":9874,"NixVector":9875,"Ġaff":9876,"Ġlst":9877,"'),)\",":9878,"ĠBytes":9879,"374":9880,"Ġpag":9881,"constraints":9882,"Headers":9883,"vendor":9884,"Public":9885,"det":9886,"chrome":9887,"quoted":9888,"Ġ*,":9889,"pie":9890,"boundary":9891,"174":9892,"ifier":9893,"LEFT":9894,"nodetype":9895,"separator":9896,"idi":9897,"ueb":9898,"Sets":9899,"Energy":9900,"CLIENT":9901,"Configured":9902,"MBOL":9903,"thernet":9904,"FILTER":9905,"ĠAddress":9906,"sci":9907,"345":9908,"ZZ":9909,"deri":9910,"Ġfilepath":9911,"arc":9912,"returncode":9913,"nf":9914,"à¤°":9915,"sic":9916,"seudo":9917,"Ġlocations":9918,":</":9919,"Ġproduction":9920,"Desc":9921,"Ġbs":9922,"misc":9923,"into":9924,"_[":9925,"Ġ\"\\\\":9926,"315":9927,"pf":9928,"Ġ''),":9929,"fullname":9930,"recursive":9931,"xbb":9932,"Ġmodifiers":9933,"ĠTABLE":9934,"OPEN":9935,"Ġtrying":9936,"Deferred":9937,"PARATOR":9938,"Ġimmediately":9939,"Ack":9940,"048":9941,"Gradient":9942,"10000":9943,"Scale":9944,"tls":9945,"375":9946,"CADE":9947,"ĠĊ":9948,"ĠOK":9949,"ucd":9950,"Ġdry":9951,"Ġcurrency":9952,"vocab":9953,"ĠPack":9954,"Prop":9955,"CB":9956,"xbe":9957,"Vari":9958,"Pattern":9959,"---------":9960,"uae":9961,"iq":9962,"277":9963,"resume":9964,"Ġ\"{\\":9965,"Ġsubscription":9966,"Ġmicro":9967,"failures":9968,"266":9969,"documentation":9970,"Insert":9971,"cay":9972,"ĠAccount":9973,"tell":9974,"extras":9975,"CUMFLEX":9976,"METHOD":9977,"Ġseveral":9978,"Ġide":9979,"Ġdidn":9980,"\")[":9981,"lapsed":9982,"pip":9983,"ENV":9984,"Opt":9985,"creator":9986,"Ġusually":9987,"$')":9988,"Ġwheel":9989,"restype":9990,"docker":9991,"mmar":9992,"2222":9993,"Ġmapped":9994,"Ġgoing":9995,"fft":9996,"Ġcheckpoint":9997,"Ġ}),":9998,"Ġfully":9999,"legacy":10000,"MODULE":10001,"snap":10002,"Ġ[(\"":10003,"Ġsubstit":10004,"039":10005,"Eval":10006,"è¡":10007,"236":10008,"Ġgranted":10009,"openconfig":10010,"meter":10011,"modulestore":10012,"xxx":10013,"Signature":10014,"Ġbuilding":10015,"Ġpromote":10016,"Ġdigest":10017,"Ġdefaultdict":10018,"plural":10019,"uitable":10020,"Ġcoordinate":10021,"Ġhandles":10022,"Ġlooking":10023,"wave":10024,"argtypes":10025,"Ġsubset":10026,"655":10027,"ĊĠĠĠĠĠĠĠĠĠĠĠĠĠĠĠĠĠĠĠĠĠĠĠĠĠĠĠĠĠĠĠĠĠĠĠĠĠĠĠĠĠĠĠĠĠĠĠĠĠĠĠĠĠ":10028,"Ġcomma":10029,"Ġblue":10030,"udf":10031,"tun":10032,"ĠAction":10033,"233":10034,"Ġincre":10035,"Ġfilesystem":10036,"140":10037,"Ġinitialized":10038,"Short":10039,"ĠCIRCUMFLEX":10040,"Ġmanagement":10041,"ĠtokenTypes":10042,"recipient":10043,"forum":10044,"Ġ70":10045,"ĠSY":10046,"Ansible":10047,"tifact":10048,"Ġcookies":10049,"vered":10050,"TX":10051,"ACTION":10052,"addCallback":10053,"Ġstrategy":10054,"ĠRen":10055,"rences":10056,"configurations":10057,"what":10058,"Ġframework":10059,"čĊčĊ":10060,"Ġwindows":10061,"Ġthumbnail":10062,"Ġpt":10063,"(\"#":10064,"needs":10065,"ĠInstance":10066,"1301":10067,"hared":10068,"Ġplaceholder":10069,"\"></":10070,"ĠDataFrame":10071,"ĠMet":10072,"ObjectName":10073,"Ġke":10074,"andbox":10075,"Distance":10076,"vault":10077,"184":10078,"ĠMagicMock":10079,"ĠSymbol":10080,"isco":10081,"ĠBasic":10082,"Inst":10083,"aw":10084,"specified":10085,"Ġretries":10086,"Ġoverridden":10087,"csrf":10088,"EMAIL":10089,"rgb":10090,"uaa":10091,"ĠPL":10092,"Ġdetail":10093,"ubd":10094,"arrays":10095,"linalg":10096,"xab":10097,"Ġstub":10098,"Real":10099,"ç±»å":10100,"csr":10101,"Ġattached":10102,"employee":10103,"xac":10104,"Ġsalt":10105,"Ġcells":10106,"AML":10107,"subscribe":10108,"checkpoint":10109,"Ġss":10110,"ĠLocal":10111,"uck":10112,"ĠDist":10113,"ĠRedistribution":10114,"issues":10115,"indexes":10116,"xaa":10117,"CFG":10118,"Ġvlan":10119,"'(?":10120,">).":10121,"assertHTML":10122,"multipart":10123,"lstrip":10124,"asc":10125,"ĠStash":10126,")(\\":10127,"morph":10128,"TAB":10129,"ĠLinux":10130,"markup":10131,"bgp":10132,"Ġdefer":10133,"UG":10134,"xad":10135,"Ġzeros":10136,"Ġleave":10137,"ues":10138,"__),":10139,"Ġdeps":10140,"iprot":10141,"Ġce":10142,"169":10143,"Ġready":10144,"xeb":10145,"Free":10146,"Tlv":10147,"Ġì":10148,"Ġ[#":10149,"ctionaries":10150,"matched":10151,"Ġgeneration":10152,"joint":10153,"Ġnetloc":10154,"Word":10155,"355":10156,"Ġtk":10157,"Ġdag":10158,"libraries":10159,"Sensor":10160,"Transaction":10161,"ĠMay":10162,"ĠDOWN":10163,"ĠPa":10164,"Ġlinen":10165,"Ġsignals":10166,"Switch":10167,"ĠAWS":10168,"Ġgamma":10169,"Aggregate":10170,"RST":10171,"ĠNon":10172,"020":10173,"fetchall":10174,"ino":10175,"generated":10176,"Groups":10177,"customer":10178,"TESTFN":10179,"such":10180,"lc":10181,"little":10182,"xae":10183,"Ġtreated":10184,"Panel":10185,"LOGGER":10186,"SOURCE":10187,"dicate":10188,"Ġsections":10189,"assertHTMLEqual":10190,"ĠParser":10191,"ä»£":10192,"Identity":10193,"chr":10194,"ĠMin":10195,"Ġsolver":10196,"/?":10197,"xm":10198,"ĠBit":10199,"Adapter":10200,"Ġdebugging":10201,"setattr":10202,"CCESS":10203,"kely":10204,"bre":10205,"tensors":10206,"met":10207,"Ġdistributions":10208,"Ġsending":10209,"ildcard":10210,"Ġoperators":10211,"spawn":10212,"HH":10213,"atz":10214,"INDEX":10215,"176":10216,"ĠSend":10217,"Ġcanvas":10218,"Ġ2007":10219,"half":10220,"anted":10221,"unce":10222,"*'":10223,"TLS":10224,"Points":10225,"Ġaccepted":10226,"AttributeError":10227,"822":10228,"ĠSphinx":10229,"KeyError":10230,"legend":10231,"Ġgetting":10232,"185":10233,"Ġaddition":10234,"consume":10235,"THO":10236,"ĠDNS":10237,"Ġperformance":10238,"Timestamp":10239,"ĠHeader":10240,"ivy":10241,"ERUSER":10242,"quiet":10243,"receiver":10244,"Ġeps":10245,"agers":10246,"symmetrical":10247,"clusion":10248,"Scal":10249,"Ġmanually":10250,"lec":10251,"\"]),":10252,"686":10253,"about":10254,"BUFF":10255,"ĠTarget":10256,"ĠBack":10257,"INSERT":10258,"Ġbygroups":10259,"Escape":10260,"Ġrand":10261,"nonzero":10262,"ĠPAR":10263,"Construction":10264,"plist":10265,"Ġhold":10266,"Ġ'@":10267,"ĠGra":10268,"Ġdefinitions":10269,"å®":10270,"neutron":10271,"xfb":10272,"svg":10273,"was":10274,"Ġpg":10275,"EXEC":10276,"EventImpl":10277,"ç±»åŀĭ":10278,"fort":10279,"altern":10280,"Low":10281,"dde":10282,"eager":10283,"Ġty":10284,"Reserved":10285,"Ġsched":10286,"Incremental":10287,"tet":10288,"chat":10289,"urlparse":10290,"Ġcompression":10291,"čĊĠ":10292,"MEM":10293,"ansion":10294,"Ġencoder":10295,"Ġcare":10296,"something":10297,"Ġdepending":10298,"Ġpull":10299,"Ġ86":10300,"Upload":10301,"Ġinvoked":10302,"pection":10303,"planation":10304,"alph":10305,"explicit":10306,"Inline":10307,"ggle":10308,"filenames":10309,"æĸ":10310,"Ġcompiled":10311,"!!!!!!!!":10312,"Ġtzinfo":10313,"ĠThat":10314,"abstractmethod":10315,"crypto":10316,"presented":10317,"Ġrecipient":10318,"ĠAP":10319,"LEMENT":10320,"Ġjinja":10321,"IRED":10322,"xbc":10323,"={},":10324,"arb":10325,"utation":10326,"Ġ\"\"\",":10327,"Ġscra":10328,"sts":10329,"Ġnume":10330,"ĠPage":10331,"ĠInfo":10332,"mand":10333,"Ġdecoder":10334,"ung":10335,"mav":10336,"Software":10337,"Ġpieces":10338,"ponent":10339,"kwds":10340,"ĠFAIL":10341,"Ġhyper":10342,"lp":10343,"mn":10344,"[::":10345,"Ġxb":10346,"xfc":10347,"Authentication":10348,"Bool":10349,"weak":10350,"xcb":10351,"incip":10352,"CLO":10353,"ĠLabel":10354,"165":10355,"Ð»":10356,"ĠPunctuation":10357,"Ġprocesses":10358,"Ġln":10359,"responses":10360,"Ġactivation":10361,"ĠMO":10362,"ril":10363,"CHEMA":10364,"+=":10365,"Ġugettext":10366,"Ġlogged":10367,"desk":10368,"Using":10369,"Move":10370,"Ġ################################":10371,"builtins":10372,"Hex":10373,"]')":10374,"marks":10375,"setObjectName":10376,"cio":10377,"latin":10378,"expandtab":10379,"Ġwerkzeug":10380,"*,":10381,"Ġpys":10382,"UPDATE":10383,"pan":10384,"Methods":10385,"ftype":10386,"WRITE":10387,"_:":10388,"assertIsNotNone":10389,"OutputStream":10390,"Ġgateway":10391,"Ġzipfile":10392,"674":10393,"adapter":10394,"ĠATT":10395,"parametrize":10396,"Platform":10397,"sistency":10398,"rich":10399,"uber":10400,"ACTIVE":10401,"mpa":10402,"cohort":10403,"]=":10404,"Ġidentify":10405,"ticks":10406,"Summary":10407,"IDD":10408,"guest":10409,"olation":10410,"playlist":10411,"rho":10412,"Ġgoverned":10413,"Ġbus":10414,"Ġcut":10415,"Ġ45":10416,"rating":10417,"xdf":10418,"172":10419,"El":10420,"reserved":10421,"hood":10422,"Editor":10423,"Ġwhite":10424,"shiftwidth":10425,"Ġlexer":10426,"ĠES":10427,"reds":10428,"VEL":10429,"minutes":10430,"Ġworkflow":10431,"ipt":10432,"modes":10433,"dfs":10434,"entropy":10435,"scene":10436,"rollback":10437,"Processor":10438,"ITEM":10439,"LOAT":10440,"HttpRequest":10441,"Gdi":10442,"paper":10443,"ĠMac":10444,")._":10445,"Ġpb":10446,"ATER":10447,"Ġ38":10448,"STATIC":10449,"åį":10450,"Ġtogether":10451,"ONLY":10452,"tested":10453,"Ġaggreg":10454,"mixed":10455,"133":10456,"capacity":10457,"signals":10458,"Ġalert":10459,"Ġsystems":10460,"Ġbounds":10461,"DOM":10462,"Ġratio":10463,"Listener":10464,"CHO":10465,"analysis":10466,"Ġcmp":10467,"ĠSELECT":10468,"Ġé":10469,"Ġcontained":10470,"WriteLn":10471,"bn":10472,"ĠĠĠĠĠĠĠĠĠĠĠĠĠĠĠĠĠĠĠĠĠ":10473,"Called":10474,"arante":10475,"Ġirq":10476,").\"\"\"":10477,"154":10478,"ticip":10479,"three":10480,"dry":10481,"Ġrealm":10482,"transpose":10483,"SCRIPT":10484,"ĠASCII":10485,"SERVICE":10486,"sched":10487,"299":10488,"xce":10489,"Pcap":10490,"Ġaudio":10491,"logits":10492,"xcf":10493,"PROCESS":10494,"AddressChecker":10495,"Ġsucce":10496,"itecture":10497,"srid":10498,"ByteTagList":10499,"xfa":10500,"Ġdetected":10501,"Created":10502,"softtabstop":10503,"rolled":10504,"('''":10505,"restart":10506,"Ġindexes":10507,"Ġopcode":10508,"cidr":10509,"ROP":10510,"pdb":10511,"subtype":10512,"Ġ87":10513,"Ġsigned":10514,"xsd":10515,"ĠWor":10516,"Pay":10517,"oose":10518,"Ġtensors":10519,"MARK":10520,"Phase":10521,"`)":10522,"Ġ88":10523,"))]":10524,"extended":10525,"QUE":10526,"SYMBOL":10527,"mesg":10528,"Ġbroken":10529,"Ġhad":10530,"041":10531,"Ġlisted":10532,"ĠStorage":10533,"Asc":10534,"MIB":10535,"Ġ%.":10536,"Ġunexpected":10537,"fallback":10538,"xba":10539,"Ġlight":10540,"Ġ-->":10541,"Pi":10542,"Ġpdb":10543,"mouse":10544,"${":10545,"learning":10546,"processors":10547,"numbers":10548,"ardown":10549,"xdc":10550,"Ġ39":10551,"648":10552,"poses":10553,"Ġscripts":10554,"DEVICE":10555,"309":10556,"Ġgives":10557,"smartindent":10558,"Ġite":10559,"ĠCreates":10560,"Ġrtol":10561,"ky":10562,"nume":10563,"lling":10564,"ĠQtCore":10565,"GCC":10566,"roperly":10567,"shop":10568,"duces":10569,"Mar":10570,"SubElement":10571,"Ġfact":10572,",,":10573,"Ġ512":10574,"chno":10575,"Ġau":10576,"quantity":10577,"paque":10578,"ĠGeometry":10579,"Ġoverrides":10580,"gge":10581,"bz":10582,"structions":10583,"Ġstand":10584,"Ġperformed":10585,".':":10586,"Ġ\"\".":10587,"Ġrestriction":10588,"quit":10589,"queries":10590,"TestSuite":10591,"catenate":10592,"ĠJOIN":10593,"Ġcatalog":10594,".'''":10595,"DIFF":10596,"Extensions":10597,"zoom":10598,"svc":10599,"station":10600,"Ġagree":10601,"ĠXcode":10602,"wrong":10603,"QtGui":10604,"priv":10605,"tcm":10606,"Creates":10607,"Linear":10608,"Ġ\"/\"":10609,"ĠAUTHORS":10610,"orical":10611,"IEW":10612,"esh":10613,"META":10614,"Ġiterations":10615,"hu":10616,"Ġthough":10617,"Ġrefer":10618,"Âł":10619,"Ġ\"}\\":10620,"Ġaren":10621,"subdir":10622,"Ġlaunch":10623,"rectives":10624,"survey":10625,"childNodes":10626,"Ġsizes":10627,"Ġmagic":10628,"205":10629,"208":10630,"ĊĠĠĠĠĠĠĠĠĠĠĠĠĊĠĠĠĠĠĠĠ":10631,"Ġlinked":10632,"poration":10633,"Ġpandas":10634,"ä»£çłģ":10635,"alone":10636,"UNCTYPE":10637,"237":10638,"2110":10639,"SUPPORT":10640,"ada":10641,"166":10642,"ael":10643,"||":10644,"Ġprox":10645,"estimators":10646,"Interrupt":10647,"EGIN":10648,"removed":10649,"Keyword":10650,"__:":10651,"Ġ----------------":10652,"bufi":10653,"gene":10654,"Den":10655,"xea":10656,"432":10657,"velope":10658,"sqlite":10659,"chunks":10660,"atives":10661,"VO":10662,"Ġmaking":10663,"communicate":10664,"/\",":10665,"ĠUInt":10666,"nonce":10667,"FEAT":10668,"warm":10669,"ham":10670,"Ġbias":10671,"ĠnodeName":10672,"disconnect":10673,"??":10674,"postgres":10675,"orator":10676,"Ġplatforms":10677,"abcdef":10678,"Ġactivity":10679,"2017":10680,"284":10681,"Supported":10682,"_=":10683,"Ġmi":10684,"Ġrequirement":10685,"ĠTE":10686,"Ùĩ":10687,":]:":10688,"dtemp":10689,"Disk":10690,"Ġwebsite":10691,"Ġendorse":10692,"294":10693,"Ġposix":10694,"ĠResult":10695,"places":10696,"ĠMIT":10697,"minute":10698,"179":10699,"minimum":10700,"Definition":10701,"Ġinp":10702,"ĠQueue":10703,"Ġtarinfo":10704,"undefined":10705,"general":10706,"WifiMode":10707,"Region":10708,"MI":10709,"REGEX":10710,"Plot":10711,"Small":10712,"Ġpin":10713,"('__":10714,"Ġnest":10715,"ĠAssert":10716,"Ġrs":10717,"checked":10718,"xdb":10719,"Chain":10720,"149":10721,"ä¸ª":10722,"ellow":10723,"formset":10724,"Locator":10725,"OutputStreamWrapper":10726,"both":10727,"ski":10728,"ĠSets":10729,"ArgumentParser":10730,"Push":10731,"capabilities":10732,"MSBuild":10733,"Ġlooks":10734,"Ġcriteri":10735,"Ġoptimizer":10736,"itm":10737,"urlencode":10738,"Ġinf":10739,"288":10740,"DAL":10741,"rier":10742,"firew":10743,"207":10744,"xde":10745,"Diff":10746,"Ġnamespaces":10747,"Geo":10748,"spaces":10749,"}\",":10750,"ĠSim":10751,"014":10752,"121":10753,"Ġupgrade":10754,"Represent":10755,"nm":10756,"Ġintern":10757,"nbsp":10758,"Done":10759,"Ġmount":10760,"COMMAND":10761,"ĠATTR":10762,"ocus":10763,"PATTERN":10764,"NORMAL":10765,"Structure":10766,"HAVE":10767,"xca":10768,"upled":10769,"éĩ":10770,"uplicates":10771,"dw":10772,"BinaryProtocol":10773,"AUT":10774,"topology":10775,"ffers":10776,"production":10777,"contenttypes":10778,"utcnow":10779,"PW":10780,"cms":10781,"Ġvec":10782,"Ġeff":10783,";')":10784,"lications":10785,"broadcast":10786,"Bits":10787,"addons":10788,"INS":10789,"cdf":10790,"Ġ'-'":10791,"Ġprops":10792,"PM":10793,"firewall":10794,"oucher":10795,"Delay":10796,"PROJECT":10797,"ĊĊĠĠĠĠĠĠĠĠĠĠĠĠ":10798,"URES":10799,"196":10800,"dhcp":10801,"runs":10802,"Ġformatting":10803,"(\"\")":10804,";',":10805,"167":10806,"Features":10807,"tour":10808,"Ġdicts":10809,"shard":10810,"inet":10811,"Ġ\"\":":10812,"ĊĊĠĠĠĠ":10813,"DEP":10814,"Ġlanguages":10815,"Ġmiddleware":10816,"ĊĊĠĠĠĠĠĠ":10817,"AMPLE":10818,"Ġsigma":10819,"editable":10820,"Ġfc":10821,"Ġreversed":10822,"157":10823,"daemon":10824,"LAN":10825,"Ġassumed":10826,">.":10827,"coverage":10828,"ĠAss":10829,"Ġcipher":10830,"Ġdates":10831,"chanis":10832,"bsocket":10833,"148":10834,"assertRaisesRegexp":10835,"lu":10836,"prep":10837,"builds":10838,"Ġ${":10839,"isc":10840,"Ġ```":10841,"Ġwhy":10842,"randn":10843,"Ġet":10844,"scen":10845,"ught":10846,"testcase":10847,"175":10848,"Ġiteritems":10849,"xaf":10850,"Ġ68":10851,"ĠStopIteration":10852,"pat":10853,"HAND":10854,"CASCADE":10855,"character":10856,"Ġhours":10857,"Red":10858,"ĠFa":10859,"194":10860,"assignment":10861,"æī":10862,"intercept":10863,"Ġregression":10864,"frac":10865,"Ġsilent":10866,"ĠURLs":10867,"Ġ44":10868,"Ġperm":10869,"NotFoundError":10870,"Ġ':'":10871,"DN":10872,"experiment":10873,"ali":10874,"344":10875,"Ġissues":10876,"Ġrepeated":10877,"Sync":10878,"xcd":10879,"bindings":10880,"After":10881,"016":10882,"Ġ&&":10883,"/$',":10884,"each":10885,"fm":10886,"Ġmid":10887,"movie":10888,"Ġpreviously":10889,"urlopen":10890,"ĠHost":10891,"DK":10892,"644":10893,"Ġ---":10894,"compressed":10895,"GRAM":10896,"Ġhelpers":10897,"annotate":10898,"Registry":10899,"Ġws":10900,"QtCore":10901,"ĠPlace":10902,"foc":10903,"ĠOGR":10904,"198":10905,"phrase":10906,"birth":10907,"scriptors":10908,"phi":10909,"atomic":10910,"bing":10911,"bidden":10912,"bp":10913,"boto":10914,"Maximum":10915,"!')":10916,"adjust":10917,"Ġ>::":10918,"Ġthird":10919,"scalls":10920,"Player":10921,"vr":10922,"Ġwaiting":10923,"There":10924,"gence":10925,"SCHEMA":10926,"nav":10927,"forma":10928,"vg":10929,"dmp":10930,"ETIME":10931,"225":10932,"Ġpprint":10933,"SED":10934,"ĠView":10935,"399":10936,"retries":10937,"ahead":10938,"ToOne":10939,"ĊĠĠĠĠĠĠĠĠĠĠĠĠĠĠĠĠĠĠĠĠĠĠĠĠĠĠĠĠĠĠĠĠĠĠĠĠĠĠĠĠĠĠĠĠĠĠĠĠĠĠĠĠĠĠ":10940,"Sw":10941,"Ġundefined":10942,"Ġchart":10943,"ĠReference":10944,"enc":10945,"collector":10946,"going":10947,"Ġhigher":10948,"Ġfixture":10949,"574":10950,"roperlyConfigured":10951,"Ġstock":10952,"ĠMon":10953,"Ġ47":10954,"inspect":10955,"degree":10956,"dead":10957,"Less":10958,"iversal":10959,"BUFFER":10960,"ĠAdditional":10961,"aux":10962,"tu":10963,"Ġdigit":10964,"--------------":10965,"PF":10966,"ĠLink":10967,"rypy":10968,"sidual":10969,"Mob":10970,"sia":10971,"uby":10972,"COMMENT":10973,"ĠCFG":10974,"ĠSequence":10975,"Ġlimits":10976,"ĠPort":10977,"aggreg":10978,"scriber":10979,"aaaaaaaa":10980,"Ġband":10981,"Ġdialect":10982,"tablename":10983,"urement":10984,"AAA":10985,"Ġhappens":10986,"metry":10987,"wwn":10988,"Ġshall":10989,"ĠDEBUG":10990,"Ġregistration":10991,"surface":10992,":')":10993,"(\"[":10994,"ponen":10995,"Ġmodulestore":10996,"368":10997,"('/',":10998,"Ġquoted":10999,"DEFIN":11000,"circle":11001,"ĠCer":11002,"ĠAccess":11003,"Ġrestart":11004,"inters":11005,"Ġgdata":11006,"ĠFrank":11007,"(\"_":11008,"workers":11009,"170":11010,"CPU":11011,"Ġimportant":11012,"ĠOperator":11013,"Org":11014,"ĠSpecifies":11015,"Ġ--------------------------------":11016,"ĠBut":11017,"masked":11018,"chn":11019,"amb":11020,"Ġcoord":11021,"xcc":11022,"Ġiniti":11023,"152":11024,"IZE":11025,"RM":11026,"().__":11027,"ĠUsage":11028,"Ġcompress":11029,"Ġquality":11030,"ĠFLAG":11031,"249":11032,"conc":11033,"validator":11034,"3600":11035,"extends":11036,"UFFMAN":11037,"Manifest":11038,"Extractor":11039,"ĠFl":11040,"ĠOverride":11041,"Ġmargin":11042,"Area":11043,"ares":11044,"ple":11045,"ä½":11046,"scr":11047,"dup":11048,"}]":11049,"igno":11050,"Ġlogits":11051,"Ġepisode":11052,"More":11053,"ĠHUFFMAN":11054,"cac":11055,"ÙĨ":11056,"])[":11057,"Ġoccurs":11058,"parsing":11059,"deploy":11060,"ACKET":11061,"337":11062,"ĠSave":11063,"Ġfullname":11064,"366":11065,"take":11066,"minor":11067,"Ġformset":11068,"pagin":11069,"Drop":11070,"developer":11071,"dialect":11072,"RESP":11073,"ACCESS":11074,"Ġmaintain":11075,"Ġstatistics":11076,"Ġescaped":11077,"xda":11078,"âĸ":11079,"Fragment":11080,"duplicate":11081,"nick":11082,"ĠĊĉ":11083,"ITER":11084,"226":11085,"ĠThread":11086,"BS":11087,"ippet":11088,"206":11089,"Safe":11090,"realpath":11091,"GIS":11092,"ĠCFUNCTYPE":11093,"Ġpixels":11094,"Ġtor":11095,"cont":11096,"Ġinitialization":11097,"ĠCorporation":11098,"Ġfileobj":11099,"IFI":11100,"Ġfrag":11101,"Ġvectors":11102,"')).":11103,"Ġlb":11104,"ĠRequired":11105,"Ġlevels":11106,"=\",":11107,"stic":11108,"Ġconverter":11109,"xdd":11110,"Ġtopo":11111,"äº¤":11112,"neighbors":11113,"Ġwidgets":11114,"PG":11115,"uef":11116,"('{":11117,"AttributeConstruction":11118,"Metric":11119,"AttributeConstructionList":11120,"olden":11121,"managed":11122,"{}'.":11123,"aking":11124,"286":11125,"jump":11126,"xee":11127,"Ġdaemon":11128,"Ascii":11129,"Ġinitializer":11130,"ora":11131,"frequency":11132,"rit":11133,"ĠUUID":11134,"Fetch":11135,"ising":11136,"Ġbra":11137,"ddt":11138,"WIDTH":11139,"ĠFloat":11140,"hist":11141,"filtered":11142,"deserialize":11143,"Ġvtk":11144,"Ġnoise":11145,"bootstrap":11146,"ĠMovedModule":11147,"Ġ==============================================================================":11148,"RequestHandler":11149,"Ġmeaning":11150,"requested":11151,"SHAR":11152,"Ġsecure":11153,"Ent":11154,"Ġfh":11155,"BD":11156,"654":11157,"ued":11158,"Ġrepresented":11159,"147":11160,"hasattr":11161,"Ġaccum":11162,"CERT":11163,"015":11164,"197":11165,"iface":11166,"Ġterminal":11167,"Ġtoday":11168,"),('":11169,"udc":11170,"ims":11171,"Ġdelimiter":11172,"Patch":11173,"220":11174,"178":11175,"Ġhack":11176,"ĠExtra":11177,"WW":11178,"Ġsmart":11179,"Ġbroadcast":11180,"Ġvocab":11181,"229":11182,"HI":11183,"simp":11184,"ased":11185,"ravel":11186,"Ġends":11187,"Objects":11188,"040":11189,"ByName":11190,"regexp":11191,"dee":11192,">\"\"\"":11193,"Ġ[['":11194,"fee":11195,"Ġdictionaries":11196,"360":11197,".+?":11198,"Ġve":11199,"ĠMySQL":11200,"Ġconsider":11201,"frozen":11202,"Ġdecoded":11203,"Ġcharge":11204,"Seq":11205,"CAT":11206,"Ġdistribute":11207,"xfd":11208,"IGNORE":11209,"ientation":11210,"Ġpreserve":11211,"Selector":11212,"!'":11213,"ĠNON":11214,"artist":11215,"Ġctxt":11216,"handled":11217,")'),":11218,"caller":11219,"Axis":11220,"ĠGRA":11221,"utoff":11222,"Ġframes":11223,"){":11224,"profiles":11225,"obs":11226,"appro":11227,"649":11228,"Chars":11229,"<!":11230,"streams":11231,"Stat":11232,"Ġsuitable":11233,"Ġcalendar":11234,"retri":11235,"ĠFranklin":11236,"OUR":11237,"patcher":11238,"wire":11239,"158":11240,"pause":11241,"248":11242,"ĠLibrary":11243,"hdr":11244,"room":11245,"bbox":11246,"ĠCopy":11247,"Ġreview":11248,"Ġpdf":11249,"cannot":11250,"Scheduler":11251,"_('":11252,"IPV":11253,":/":11254,"frag":11255,"converter":11256,"Ġfore":11257,"Ġoslo":11258,"IDE":11259,"POINTER":11260,"Ġclosing":11261,"Ġannotation":11262,"solver":11263,"Ġfall":11264,"COM":11265,"remaining":11266,"openerp":11267,"headline":11268,"visibility":11269,"annotations":11270,"Ġpoll":11271,"123456789":11272,"iodic":11273,"Signal":11274,"Ġtries":11275,"clicked":11276,"sequent":11277,"skipUnless":11278,"sink":11279,"Ġ'|":11280,"uee":11281,"ContentType":11282,"xblock":11283,"Ġanalysis":11284,"]-":11285,"ffi":11286,"ĠCONNECTION":11287,"UTC":11288,"floor":11289,"ĠNa":11290,"Ġpermit":11291,"808":11292,"ĠCOMM":11293,"ulip":11294,"ĠFORM":11295,"lette":11296,"orth":11297,"ĠMain":11298,"topics":11299,"macro":11300,"NEL":11301,"Ã¡":11302,"209":11303,"etag":11304,"ĠEnum":11305,"lider":11306,"AST":11307,"ĠPh":11308,"156":11309,"Execution":11310,"Ġadjust":11311,"Buf":11312,"SIX":11313,"Ġbib":11314,"Ġ02110":11315,"chapter":11316,"rie":11317,"ato":11318,"Sys":11319,"CASE":11320,"Ø§Ø":11321,"lue":11322,"\")]":11323,"Dummy":11324,"WO":11325,"ah":11326,"Ġsvn":11327,"Replace":11328,"bins":11329,"rouped":11330,"flash":11331,"equals":11332,"Ġpositional":11333,"Repo":11334,"zzzz":11335,"Ġprojects":11336,"Ġappears":11337,"celer":11338,"');":11339,"opro":11340,"203":11341,"TIM":11342,"Ġecho":11343,"LES":11344,"who":11345,"validators":11346,"Details":11347,"Counter":11348,"ĠPlugin":11349,"patches":11350,"Ġ::=":11351,"IAS":11352,"Ġclip":11353,"Ġnose":11354,"Renderer":11355,"solve":11356,"pyc":11357,"Ġcanonical":11358,"Merge":11359,"Temporary":11360,"ython":11361,"adoop":11362,"306":11363,"ĠQUOT":11364,"NEW":11365,"802":11366,"INET":11367,"needed":11368,"807":11369,"189":11370,"0123456789":11371,"BOT":11372,"æĹ":11373,"asm":11374,"mobile":11375,"Propagation":11376,"ĠSTATE":11377,"JS":11378,"ĠPe":11379,"ggered":11380,"filesystem":11381,"895":11382,"Contents":11383,"INF":11384,"227":11385,"Ġtodo":11386,"646":11387,"ĠVector":11388,"External":11389,"doctest":11390,"ĠDef":11391,"horizontal":11392,"Ġegg":11393,"Ob":11394,"Ġcompo":11395,"todo":11396,"Simulator":11397,"Media":11398,"Export":11399,"Ġ'{{":11400,"PECT":11401,"levels":11402,"388":11403,"Addr":11404,"295":11405,"arily":11406,"foot":11407,"Should":11408,"ustr":11409,"Ġdependent":11410,"Programming":11411,"wkt":11412,"Ġswap":11413,"Certificate":11414,"ROW":11415,"inp":11416,"vertex":11417,"videos":11418,"456":11419,"Ġutility":11420,"Commit":11421,"TOP":11422,"When":11423,"ĠGtk":11424,"ufd":11425,"ĠEmail":11426,"Unique":11427,"çĶ¨":11428,"MODEL":11429,"Ġut":11430,"Ġcss":11431,"146":11432,"manent":11433,"superuser":11434,"PD":11435,"\";":11436,"Ġage":11437,"ander":11438,"ulary":11439,"246":11440,"Ġrename":11441,"Endpoint":11442,"ĠNeither":11443,"359":11444,"RemoteStation":11445,"DY":11446,"Constructor":11447,"Ġskb":11448,"ĠIDs":11449,"datastore":11450,"firmed":11451,"376":11452,"hexdigest":11453,"Game":11454,":].":11455,"Ġmav":11456,"ĠGRAVE":11457,"Variables":11458,"Ġ({":11459,"licas":11460,"Ġlogical":11461,"Ġauthors":11462,"picking":11463,"Available":11464,"Ġcmds":11465,")})":11466,"Two":11467,"([-":11468,"Ġspatial":11469,"third":11470,"Ġeigen":11471,"]\",":11472,"stroke":11473,"une":11474,"kv":11475,"copg":11476,"cube":11477,"formance":11478,"Ġaccepts":11479,"Ġtell":11480,"yield":11481,"Ġsubmit":11482,"Ġsr":11483,"Ġinverse":11484,"Ġ302":11485,"blog":11486,"Ðº":11487,"Ġaws":11488,"ĠOWNER":11489,"###############################################################################":11490,"Ġ\"{}":11491,"Ġcome":11492,"Construct":11493,"scaler":11494,"anning":11495,"Ġchoose":11496,"authorized":11497,"anchor":11498,"arehouse":11499,"...\"":11500,"188":11501,"0101":11502,"tailed":11503,"Progress":11504,"IDL":11505,"Ids":11506,"Ġexpanded":11507,"))),":11508,"ifth":11509,"tmpl":11510,"ĠTYPE":11511,"Ġimpl":11512,"ĠGraph":11513,"ĠNormal":11514,"))[":11515,"307":11516,"Ġrd":11517,"FORMS":11518,"TestsFrom":11519,"155":11520,"atoms":11521,"feeds":11522,"magic":11523,"ĠExten":11524,"'#":11525,"ernel":11526,"uec":11527,"ufc":11528,"]+',":11529,"wind":11530,"parsers":11531,"Support":11532,"012":11533,"Ġclassi":11534,"mass":11535,"ENAME":11536,"rontend":11537,"jp":11538,"Ġ%%":11539,"ILED":11540,"Ġ'..":11541,"Ġnn":11542,"ĠSET":11543,"Ġappended":11544,"iki":11545,"å¤":11546,"decorator":11547,"Gu":11548,"vd":11549,"outline":11550,"257":11551,"ya":11552,"Ġexce":11553,"weet":11554,"maximum":11555,"čĊčĊĠĠĠĠĠĠĠĠĠĠĠ":11556,"ĠProtocol":11557,"WifiRemoteStation":11558,"Ġtid":11559,"los":11560,"Utf":11561,"bes":11562,"datas":11563,"221":11564,"305":11565,"];":11566,"tempdir":11567,"LB":11568,"Ġfinder":11569,"Algorithm":11570,"asing":11571,"angular":11572,"Ġ['-":11573,"RENT":11574,"Sig":11575,"ĠNUM":11576,"...,":11577,"ĠInitialize":11578,"means":11579,"UNIC":11580,"ĠColor":11581,"decorators":11582,"223":11583,"Ġmarked":11584,"Ġconfigs":11585,"hou":11586,"Ġrb":11587,"UNKNOWN":11588,"Ġ*/":11589,"incipal":11590,"fetchone":11591,"Sl":11592,"Ġaux":11593,"ifies":11594,"ĠConfiguration":11595,"Conv":11596,"Ġreads":11597,"Notification":11598,"extent":11599,"gdal":11600,"Ġiso":11601,"Ġissubclass":11602,"244":11603,"viding":11604,"Coupled":11605,"ĠFrom":11606,"mooth":11607,"Ġforeign":11608,"Ġincrement":11609,"defer":11610,"ARG":11611,"tifier":11612,"Place":11613,"structed":11614,"Ġcontributor":11615,"registered":11616,"olsr":11617,"Ġpp":11618,"Ġintended":11619,"Ġsoft":11620,"Ġgui":11621,"Ok":11622,"Ġ>,":11623,"Ġ600":11624,"PLAY":11625,"Authorization":11626,"mutation":11627,"Ġpayment":11628,"aaa":11629,"Ġ10000":11630,"currentToken":11631,"STOP":11632,"(':')":11633,"ĠTuple":11634,"LENS":11635,"guess":11636,"opener":11637,"astic":11638,"Ġtrim":11639,"Ġbytearray":11640,"rn":11641,"ĠHelper":11642,"ĠDEVICE":11643,"OURCE":11644,"klass":11645,"logout":11646,"Ġlistener":11647,"Ġfour":11648,"linspace":11649,"uites":11650,"WINDO":11651,"ster":11652,"courses":11653,"Tools":11654,"DAY":11655,"186":11656,"Replay":11657,"SPACE":11658,"around":11659,"look":11660,"qualified":11661,"ĠOPT":11662,"mapped":11663,"Head":11664,"Ġbr":11665,"ĠSite":11666,"Ġlocalhost":11667,"inverse":11668,"sited":11669,"eof":11670,"('\\\\":11671,"ĠCore":11672,"Ġseparated":11673,"Ċĉĉĉĉĉĉĉ":11674,"Band":11675,"sessions":11676,"245":11677,"umen":11678,"spatial":11679,"ĠTrace":11680,"finder":11681,"ĠTeam":11682,"^{":11683,"Ġomitted":11684,"329":11685,"ressor":11686,"Ġdepend":11687,"High":11688,"Ġroles":11689,"cname":11690,"Router":11691,"gpl":11692,"chmod":11693,"ĠMSV":11694,"ATH":11695,"Ġbinding":11696,"information":11697,"readed":11698,"=[('":11699,"296":11700,"firmation":11701,"vp":11702,"Ġmaybe":11703,"relationship":11704,"Ġnotify":11705,"yncio":11706,"closing":11707,"Ġkeras":11708,"Ġxbmc":11709,"MON":11710,"ĠFin":11711,"ATT":11712,"ĠBR":11713,"yml":11714,"ĠOAuth":11715,"()'":11716,"247":11717,"Ġplural":11718,"ĠUsing":11719,"PYTHON":11720,"mpaign":11721,"212":11722,"Ġsqlite":11723,"eStart":11724,"authentication":11725,"ĠFrame":11726,"ĠALL":11727,"Dictionary":11728,"lexer":11729,"built":11730,"145":11731,"teraction":11732,"DER":11733,"sist":11734,"Ġevaluation":11735,"Ġdescribed":11736,"ilo":11737,"Ġ65":11738,"ĠZZ":11739,"ĠSplit":11740,"DP":11741,"vpc":11742,"racle":11743,"ima":11744,"Ġcoverage":11745,"Ġ\"&":11746,"Ġleaf":11747,"Ġtick":11748,"UDE":11749,"rove":11750,"Ġshapes":11751,"]|":11752,"lastic":11753,"327":11754,"PARAMET":11755,"Ġgzip":11756,"Registration":11757,"ĠDES":11758,"Ġnetworks":11759,"tuples":11760,"Transfer":11761,"Sur":11762,"Tick":11763,"EXCEPT":11764,"EA":11765,"foreignkey":11766,"policies":11767,"TODO":11768,"333":11769,"Events":11770,"CRET":11771,"Dump":11772,"Ġvariance":11773,"ĠReport":11774,"187":11775,"Ġpathname":11776,"shuffle":11777,"RF":11778,"Ġhuman":11779,"131":11780,"ichael":11781,"809":11782,"FLOAT":11783,"GER":11784,"ĠRPC":11785,"configured":11786,"čĊĠĠĠĠčĊĠĠĠ":11787,"Ġinserted":11788,"Ġothers":11789,"least":11790,"Finder":11791,"Ġ\"%(":11792,"VIS":11793,"ĠImple":11794,"uea":11795,"fork":11796,"owel":11797,"wheel":11798,"Ġwire":11799,"==\"":11800,"ĠConver":11801,"Ġna":11802,"sz":11803,"Paths":11804,"Ġexperiment":11805,"joined":11806,"imize":11807,"ĠBytesIO":11808,"given":11809,"303":11810,"Ġ2005":11811,"Ġreferenced":11812,"NtGdi":11813,"Ġshard":11814,"connector":11815,"processes":11816,"LEVEL":11817,"rics":11818,"ponential":11819,")['":11820,"mf":11821,"Ġvalidator":11822,"Super":11823,"THOST":11824,"æĬ":11825,"Price":11826,"ONSE":11827,"ĠRegister":11828,"666":11829,"ĠQUOTATION":11830,"Ġphy":11831,"LANGU":11832,"undo":11833,"Checks":11834,"printer":11835,"ĠAbstract":11836,"Ġeg":11837,"noise":11838,"ĠDistribution":11839,"releases":11840,"balancer":11841,"ĠHere":11842,"]?":11843,"ĠFloor":11844,"])))":11845,"sun":11846,"Ġdash":11847,"Ġroll":11848,"Ġpolynomial":11849,"Ġhighlight":11850,"Ġ43":11851,"subfield":11852,"maybe":11853,"(\",":11854,"ĠEntry":11855,"availability":11856,"repos":11857,"alter":11858,"cx":11859,"Zone":11860,"benchmark":11861,")':":11862,"vrf":11863,"unix":11864,"),(":11865,"Ġdup":11866,"Pipe":11867,"Ġdx":11868,"Ġ123":11869,"339":11870,"^^":11871,"Ġdraft":11872,"feat":11873,"195":11874,"readable":11875,"RT":11876,"libvirt":11877,"fq":11878,"codename":11879,"Mapper":11880,"Its":11881,"Ġhereby":11882,"Ġstrides":11883,"287":11884,"iris":11885,"implicit":11886,"parallel":11887,"DQ":11888,"Ġrenderer":11889,"\",\"%":11890,"Greater":11891,"CTG":11892,"Ġmsv":11893,"('[":11894,"curve":11895,"]+)":11896,"ĠImproperlyConfigured":11897,"cum":11898,"Ġscheduler":11899,"cise":11900,"806":11901,"commended":11902,"Ma":11903,"Ġrecv":11904,"radio":11905,"Second":11906,"Converter":11907,"vin":11908,"rillic":11909,"SUFF":11910,"Modified":11911,"yang":11912,"handshake":11913,"uggest":11914,"ĠLayer":11915,"=\"\"\"":11916,"(',')":11917,"$\",":11918,"vtk":11919,"ĠGEOS":11920,"231":11921,"Ġinterpreted":11922,"vided":11923,"Ġfollows":11924,"orizon":11925,"488":11926,"Dependencies":11927,"camera":11928,"encrypt":11929,"Browser":11930,"163":11931,"ĠDictionary":11932,"due":11933,"detection":11934,"describe":11935,"Ġ'</":11936,"Ġ'*.":11937,"QUERY":11938,"369":11939,"ĠTesting":11940,":,":11941,"Ġpragma":11942,"amble":11943,"Ġpredicate":11944,"Ġ########################":11945,"Ġturtle":11946,"ĠTiny":11947,"callbacks":11948,"ĠRule":11949,"Download":11950,"ĠTEXT":11951,"ĠCPU":11952,"ĠIter":11953,"Override":11954,"Ġmemo":11955,"777":11956,"boardInterrupt":11957,"USERNAME":11958,"EK":11959,"Ġequ":11960,"tacts":11961,"skipped":11962,"regions":11963,"throw":11964,"...)":11965,"Trailer":11966,"Ġtgt":11967,"BoundedBig":11968,"Ġ(),":11969,"BIT":11970,"Ġquiet":11971,"Ġdestroy":11972,"ĠSerial":11973,"riendly":11974,"StubOut":11975,"Std":11976,"ĠCache":11977,"CALL":11978,"memo":11979,"Ã³":11980,"Req":11981,"Ġrepeat":11982,"mkdtemp":11983,"chan":11984,"Fix":11985,"(\"\"":11986,"åľ":11987,"MagicMock":11988,"stable":11989,"259":11990,"349":11991,"EXP":11992,"chanism":11993,"ĠDescription":11994,"()`":11995,"ignored":11996,"peg":11997,"Ġsegments":11998,"Ġslow":11999,"idle":12000,"Ġ56":12001,"ĠSHA":12002,"BER":12003,"Ġabort":12004,"Ġseek":12005,"GPL":12006,"Ġdatastore":12007,"ĠUnit":12008,"ĠParameter":12009,"terminal":12010,"Ġenc":12011,"Dist":12012,").\\":12013,"WithMock":12014,"379":12015,"Ġpurpose":12016,"Sizer":12017,"WER":12018,"LAB":12019,"appings":12020,"640":12021,"webpage":12022,"Serialized":12023,"pci":12024,"hp":12025,"curses":12026,"ĠSSH":12027,"utiful":12028,"caps":12029,"ĠEnable":12030,"896":12031,"preadsheet":12032,"ä¸Ģä¸ª":12033,"153":12034,"ĠDele":12035,"IFT":12036,"Ġdetermined":12037,"Snapshot":12038,"ITION":12039,"Click":12040,"ota":12041,"Ġfirewall":12042,"Ġvirt":12043,"Ġprediction":12044,"5357":12045,"378":12046,"()['":12047,"228":12048,"Execute":12049,"Ġlittle":12050,"ĠChromium":12051,"Ġticket":12052,"ĠSyntaxError":12053,"Home":12054,"Ġnan":12055,"even":12056,"lapse":12057,"VIEW":12058,"lfile":12059,"Ġlikely":12060,"ific":12061,"ĠIns":12062,"calculate":12063,"ĠCharField":12064,"roots":12065,"ĠFifth":12066,"RGB":12067,"perms":12068,"gent":12069,"passed":12070,"rhs":12071,"Ġguarante":12072,"Ġhw":12073,"']}":12074,"ĠSC":12075,"streaming":12076,"ĠLook":12077,"ĠDoes":12078,"SparseTensor":12079,"directed":12080,"toolset":12081,"Ġrelevant":12082,"Ġsheet":12083,"};":12084,"ipedia":12085,"Cla":12086,"bases":12087,"StubOutWithMock":12088,"hic":12089,"ĠMigration":12090,"MessageType":12091,"Minimum":12092,"EVT":12093,"ĠSum":12094,"sudo":12095,"Ġinstallation":12096,"Atom":12097,"jj":12098,"restri":12099,"Ġ'{%":12100,"verti":12101,"mozilla":12102,"Ġpersons":12103,"sessment":12104,"Broadcast":12105,"Bus":12106,"ities":12107,"interpre":12108,"Threshold":12109,"album":12110,"Ġbi":12111,"ĠAL":12112,"descr":12113,"History":12114,"RSA":12115,"deferred":12116,"Users":12117,"DRAW":12118,"ĠNull":12119,"Ġjava":12120,"']])":12121,"320":12122,"Ġopened":12123,"Ġgdb":12124,"ORDER":12125,"ĠLtd":12126,"308":12127,"894":12128,"IndexError":12129,"ttl":12130,"expanduser":12131,"Ġquota":12132,"Ġring":12133,"ĠValidate":12134,"336":12135,"Ġblack":12136,"Ġconsistent":12137,"importer":12138,"Ġlegacy":12139,"251":12140,"Ġlowercase":12141,"Ġlarger":12142,"TON":12143,"excluded":12144,"twisted":12145,"Ġadapter":12146,"Extract":12147,"Ġtornado":12148,"Ġcombined":12149,"gray":12150,"geos":12151,"Ġresolved":12152,"scaling":12153,"Termin":12154,"Ġmoved":12155,"hh":12156,"Topic":12157,"Ġvolumes":12158,"Ġhar":12159,"Ġmajor":12160,"serialization":12161,"Ġcapt":12162,"åĬ":12163,"declar":12164,"nic":12165,"Ġlive":12166,"colon":12167,"__'):":12168,"Ġembedded":12169,"CAG":12170,"hest":12171,"_\"":12172,"pygments":12173,"ĠUTC":12174,"ĠDisplay":12175,"ĠFail":12176,"authenticated":12177,"ĠTree":12178,"IPv":12179,"Ġmiddle":12180,"netes":12181,"tenance":12182,"ubernetes":12183,"Ġsessions":12184,"Private":12185,"assets":12186,"Ġtabs":12187,"Ġupon":12188,"COOK":12189,"Pointer":12190,"TRANS":12191,"Ġiris":12192,"Ġattachment":12193,"cedure":12194,"Ñĥ":12195,"Ġ|\\":12196,"Shared":12197,"abb":12198,"142":12199,"Ġmimetype":12200,"alo":12201,">/":12202,"wers":12203,"Ġwave":12204,"190":12205,"CXX":12206,"popen":12207,"Ġ||":12208,"VOL":12209,"newline":12210,"æķ°":12211,"0430":12212,"ĠTLS":12213,"enrollment":12214,"Idx":12215,"}')":12216,"__'":12217,"ĠPR":12218,"Ġdic":12219,"fx":12220,"quee":12221,"reporter":12222,"tkinter":12223,"Ġprobability":12224,"servations":12225,"Sa":12226,"para":12227,"Ġ:]":12228,"Ġcid":12229,"ĠLet":12230,"ALLOW":12231,"ModuleError":12232,"documents":12233,"258":12234,"ĠInvenio":12235,"implementation":12236,"Ġseems":12237,"à¤¨":12238,"hold":12239,"unquote":12240,"Mesh":12241,"copi":12242,"works":12243,"ĊĠĠĊĠ":12244,"lexers":12245,"Special":12246,"Ġextend":12247,"584":12248,"Ġsense":12249,"Ġmass":12250,"notation":12251,"Ġnormally":12252,"ches":12253,"Ġplus":12254,"576":12255,"gzip":12256,"Ġ/=":12257,"Actor":12258,"NG":12259,"Ġ49":12260,"Ġexpires":12261,"Ġwizard":12262,"trim":12263,"jinja":12264,"ĠET":12265,"Ġpositions":12266,"sky":12267,"ĊĠĠĠĠĠĠĠĠĠĠĠĠĠĠĠĠĠĠĠĠĠĠĠĠĠĠĠĠĠĠĠĠĠĠĠĠĠĠĠĠĠĠĠĠĠĠĠĠĠĠĠĠĠĠĠĠĠĠĠĠĠĠĠĠĠĠĠĠĠĠĠĠĠĠĠĠĠĠĠĠ":12268,"fan":12269,"izations":12270,"Ġranges":12271,"ĠDevice":12272,"SUFFIX":12273,"clare":12274,"gtk":12275,"Ġreach":12276,"GetInteger":12277,"ItsMe":12278,";</":12279,"vectors":12280,"datasets":12281,"qos":12282,"focus":12283,"Ġstmt":12284,"161":12285,"packed":12286,"Ġdeploy":12287,"Master":12288,"143":12289,"optimizer":12290,"Ġ('-":12291,"ASCII":12292,"Ġ2000":12293,"Ġance":12294,"ĠCalled":12295,"Ġcapture":12296,"XR":12297,"__[":12298,"FAILED":12299,"ĠMedia":12300,"rottle":12301,"390":12302,"Ġconditional":12303,"Ġenergy":12304,"Ġlimitation":12305,"Builtin":12306,"STY":12307,"sioned":12308,"Ġdeferred":12309,"''')":12310,"Bucket":12311,"activation":12312,"Ġqualified":12313,"Ġdead":12314,"755":12315,"quanti":12316,"replica":12317,"stride":12318,"Ġ[]):":12319,"Bundle":12320,"Ġair":12321,"ARRAY":12322,"DNS":12323,"mirror":12324,"spe":12325,"Ġdc":12326,"Scen":12327,"Ġsca":12328,"Ġ['<":12329,"Ġpotential":12330,"Ġ('_":12331,"238":12332,"qname":12333,"classi":12334,"Ġcompressed":12335,"tearDown":12336,"viation":12337,"Ġbenchmark":12338,"MY":12339,"ĠMapping":12340,"Soup":12341,"expires":12342,"Ġcoefficients":12343,"also":12344,"Ġsqu":12345,"IPS":12346,"Ġfraction":12347,"ĠVER":12348,"VARI":12349,"untry":12350,"asket":12351,"__()``":12352,"Ġpolling":12353,"hints":12354,"ĠDEL":12355,"ï¼Į":12356,"Try":12357,"ongs":12358,"atever":12359,"****************************************************************":12360,"ĠSPRL":12361,"KT":12362,"183":12363,"Ġcleaned":12364,"EmptyAttributeValue":12365,"ATTRIB":12366,"Polygon":12367,"ADDRESS":12368,"merz":12369,"pended":12370,"secondary":12371,"cinder":12372,"ĠProxy":12373,"Ġpen":12374,"LONG":12375,"touch":12376,"ĠBar":12377,"Ġlicenses":12378,"pename":12379,"BadRequest":12380,"Ġ''))":12381,"fromUtf":12382,"454":12383,"slave":12384,"Ġpatches":12385,"Ġsquare":12386,"Perf":12387,"à¤¿":12388,"!',":12389,"dal":12390,"eth":12391,"Ġdp":12392,"mv":12393,"INK":12394,"Ġconflict":12395,"Ġretrieved":12396,"=_('":12397,"(\"\",":12398,"387":12399,"paragraph":12400,"Ġresolution":12401,"Ġavg":12402,"ĠSeries":12403,"Ġmodes":12404,"relpath":12405,"pools":12406,"Resolver":12407,"Ġobtaining":12408,"included":12409,"urm":12410,"BBI":12411,"nodeType":12412,"Combo":12413,"Ġchosen":12414,"bw":12415,"mor":12416,"ura":12417,"'-":12418,"logged":12419,"Ġcrash":12420,"Uniform":12421,"leave":12422,"mute":12423,"Ġdocker":12424,"ĠCase":12425,"Ġ46":12426,"Ġmoment":12427,"hashes":12428,"Ġclassifier":12429,"rg":12430,"Ġgreen":12431,".*)":12432,"Ġpicking":12433,"requirement":12434,"ĠTk":12435,"ĠGu":12436,"++++":12437,"162":12438,"ĠSetup":12439,"DeserializeFromString":12440,"Ġprod":12441,"269":12442,"409":12443,"usion":12444,"pathname":12445,"prime":12446,"SRC":12447,"Ġptr":12448,"ffset":12449,"Without":12450,"weekday":12451,"Ġembedding":12452,"nec":12453,"Ġattempts":12454,"Gateway":12455,"enqueue":12456,"])]":12457,"WAIT":12458,".'))":12459,"NT":12460,"Selected":12461,"Widgets":12462,"SB":12463,"Ġwsgi":12464,"rink":12465,"}))":12466,"Ġincoming":12467,"Ġportions":12468,"*\"":12469,"Ġtested":12470,"renderer":12471,"Ġzlib":12472,"(%(":12473,"Ġfar":12474,"pic":12475,"ctrl":12476,"Ġcomes":12477,"173":12478,"tility":12479,"ĠTri":12480,"ĠMis":12481,"ARM":12482,"ferer":12483,"basedir":12484,"docstring":12485,"initialized":12486,"Ġprinted":12487,"DATETIME":12488,"ĠLinear":12489,"SETT":12490,"FROM":12491,"heap":12492,"partment":12493,"Ġbbox":12494,"Ġprocessor":12495,"REQUIRED":12496,"Ġ02":12497,"cility":12498,"configfs":12499,"AE":12500,"ncy":12501,"ĠSupport":12502,"dices":12503,"bert":12504,"Ġclassification":12505,"Ġserializers":12506,"CLE":12507,"pider":12508,"Ġextracted":12509,"TEMP":12510,"DICT":12511,"019":12512,"regression":12513,"Ġanchor":12514,"ĠComple":12515,"Ġclock":12516,"truncate":12517,"lent":12518,"atalog":12519,"Segment":12520,"Ġ2001":12521,"beat":12522,"]\")":12523,"Ġquantity":12524,"!\\":12525,"Branch":12526,"ighest":12527,"Ġgrammar":12528,"vated":12529,"Ġquick":12530,"anitize":12531,"347":12532,"ENTER":12533,"EventId":12534,"ELEMENT":12535,"las":12536,"Ġlearn":12537,"picture":12538,"ĠERROR":12539,"ĠTemp":12540,"within":12541,"submission":12542,"morphic":12543,")`":12544,"Like":12545,"umented":12546,"tigu":12547,"Ġ'').":12548,"018":12549,"acle":12550,"adj":12551,"apters":12552,"partitions":12553,"webkit":12554,"Yes":12555,"Lenum":12556,"--+":12557,"COMPL":12558,"FRING":12559,"Ġdeclaration":12560,"Ġ_(":12561,"threading":12562,"pagate":12563,"Ġcard":12564,"ĠRES":12565,"Peer":12566,"SING":12567,"ĠSpecial":12568,"intersection":12569,"Ġpossibly":12570,"ircle":12571,"uestion":12572,"#:":12573,"&&":12574,"iteration":12575,"Java":12576,"ĠDistutils":12577,"Ġsg":12578,"ĠGit":12579,"ĠEngine":12580,"Ġul":12581,"ĠCLA":12582,"346":12583,"Validate":12584,"}_":12585,"å¼":12586,"till":12587,"resolution":12588,"TeX":12589,"sizeof":12590,"Ġimplementations":12591,"COD":12592,"855":12593,"...\")":12594,"cg":12595,"ffffff":12596,"salt":12597,"Ġreuse":12598,"grp":12599,"FRINGEMENT":12600,"rated":12601,"Ġregarding":12602,"oprot":12603,"Ġhooks":12604,"season":12605,"toms":12606,"compose":12607,"ĠParam":12608,"è¡Į":12609,"Ġpredict":12610,"texture":12611,"Ġminor":12612,"countered":12613,"BoundedBigAutoField":12614,"297":12615,"iving":12616,"Relation":12617,"045":12618,"DOUT":12619,"DecodeError":12620,"Qual":12621,"Ġstaff":12622,"Ġinherited":12623,"ĠInternal":12624,"ĠLocation":12625,"Compile":12626,"Ġmatrices":12627,"anonymous":12628,"directories":12629,"aker":12630,"Day":12631,"191":12632,"Ġ655":12633,"completed":12634,"references":12635,"pep":12636,"vertices":12637,"321":12638,"Ġaccounts":12639,"resolvers":12640,"407":12641,"Score":12642,"ĠTra":12643,"ALIAS":12644,"/#":12645,"urope":12646,"Unsupported":12647,"bm":12648,"ATEG":12649,"combo":12650,"ĠRecord":12651,"netloc":12652,"Separ":12653,"ibling":12654,"Ġ========":12655,"pod":12656,"Ġtot":12657,"positions":12658,"BF":12659,"EMIT":12660,"Ġgradients":12661,"apis":12662,",**":12663,"365":12664,"Ġpara":12665,"Factor":12666,"LOBAL":12667,"fac":12668,"Ġdefining":12669,"Ġnavi":12670,"passwd":12671,"Strings":12672,"dmesg":12673,"Zh":12674,"ominator":12675,"Ġwhom":12676,"Ġinvoke":12677,"Worker":12678,"Ġconfirm":12679,"Dev":12680,"Ġnotes":12681,"2018":12682,"FRAME":12683,"367":12684,"capture":12685,"rng":12686,"illing":12687,"operators":12688,"cident":12689,"Ġlead":12690,"itro":12691,"Ġ``'":12692,"Ġinterpreter":12693,")==":12694,"your":12695,"Ġ'>":12696,"lhs":12697,"Ġnc":12698,"Ġ57":12699,"Ġsmaller":12700,"Ġreadable":12701,"blah":12702,"Ġcnt":12703,"spf":12704,"ĠProduct":12705,"Generated":12706,"ĠCalculate":12707,"construction":12708,"Ġminute":12709,"775":12710,"SYSTEM":12711,"nos":12712,"Ġpat":12713,"Revision":12714,"Ġownership":12715,"ossible":12716,"Ġindependent":12717,"ĠForeignKey":12718,"gorithms":12719,"reqs":12720,"aodv":12721,"srs":12722,"ĠĊĠĠĠĠĠĠĠĠĠĠĠĠĠĠĠĠĠĠĠĠĠĠĠ":12723,"Ġtheta":12724,"210":12725,"then":12726,"ĠComponent":12727,"BUT":12728,"typedefDict":12729,"exclusive":12730,"Ġolder":12731,"onic":12732,"Ġgetopt":12733,"Ġ>'])":12734,"141":12735,"ech":12736,"()}":12737,"Ġvault":12738,"Spa":12739,"ĊĠĠĠĠĠĠĠĠĠĠĠĠĠĠĠĠĠĠĠĠĠĠĠĠĠĠĠĠĠĠĠĠĠĠĠĠĠĠĠĠĠĠĠĠĠĠĠĠĠĠĠĠĠĠĠĠ":12740,"prom":12741,"cntl":12742,"Ġsell":12743,"324":12744,"kwarg":12745,"ĠNameError":12746,"Poly":12747,"Ġpanel":12748,"Ġtd":12749,"Ġmeth":12750,"linked":12751,"GetSerialized":12752,"shal":12753,"imated":12754,"Pickle":12755,"CGG":12756,"QApplication":12757,"RON":12758,"Ġvertex":12759,"Ġ%}{%":12760,"lihood":12761,"ĠClean":12762,"SESSION":12763,"TV":12764,"ĠSR":12765,"Ġ55":12766,"FIELDS":12767,"151":12768,"ĠOriginal":12769,"EXTEN":12770,"Br":12771,"GetSerializedSize":12772,"^\\":12773,"ajax":12774,"imports":12775,"Final":12776,"Ġinteractive":12777,"Ġwalk":12778,"SUCCESS":12779,"KB":12780,"footer":12781,"notifications":12782,"idity":12783,"reach":12784,"ĠLookup":12785,"offer":12786,"Ġaffect":12787,"ĠĠĠĠĠĠĠĠĠĠĠĠĠĠĠĠĠĠĠĠĠĠĠ":12788,"publisher":12789,",#":12790,"rout":12791,"Ġ127":12792,"ĠĠĠĠĠĠĠĠĠĠĠĠĠĠĠĠĠĠĠĠĠĠĠĠ":12793,"separated":12794,"GENER":12795,"decoding":12796,"-------":12797,"_()":12798,"INFRINGEMENT":12799,"Alchemy":12800,"RESPONSE":12801,"ico":12802,",(":12803,"logfile":12804,"ãĢ":12805,"warehouse":12806,"Async":12807,"addCleanup":12808,"049":12809,"Ġmigrate":12810,"RIGHT":12811,"Fixture":12812,"================================================":12813,"Ġ','.":12814,"HTTPError":12815,"djang":12816,"Ġmouse":12817,"IDs":12818,"UNICODE":12819,"apple":12820,"Ġgenerates":12821,"Ġstaticmethod":12822,"ĠWill":12823,"ĠSUPERUSER":12824,"Marker":12825,"ĠRoot":12826,"GLE":12827,"ym":12828,"Ġcd":12829,"Ġvpc":12830,"Ġcalc":12831,"211":12832,"relu":12833,"Origin":12834,"Ġtile":12835,"ĠAfter":12836,"ience":12837,"Quote":12838,"Expand":12839,"ĠNOTICE":12840,"radi":12841,"Ġshutdown":12842,"below":12843,"serializers":12844,"rnn":12845,"ĠFLAGS":12846,"CV":12847,"uming":12848,"compression":12849,"Ġthus":12850,"181":12851,"Collector":12852,"fh":12853,"ATG":12854,"Ġcalib":12855,"spider":12856,"DEFINED":12857,"ĠGLenum":12858,"ĠWri":12859,"TestAll":12860,"loadTestsFrom":12861,"Ġaccuracy":12862,"Ġnamedtuple":12863,"Ġinc":12864,"scra":12865,"Ġmultiprocessing":12866,"overrides":12867,"arp":12868,"Ġgithub":12869,"328":12870,"Ġfcntl":12871,"ĠINTO":12872,"rotate":12873,"CN":12874,"contin":12875,"Ġmoving":12876,"298":12877,"ĠTimeout":12878,"ixmap":12879,"MASK":12880,"Ġremoving":12881,"Pair":12882,"Ġmanaged":12883,"])),":12884,"Ġtmpdir":12885,"Edge":12886,"Self":12887,"WifiPhy":12888,"Ġens":12889,"REPL":12890,"checkout":12891,"ĠExtract":12892,"Ġident":12893,"182":12894,"Ġauthenticate":12895,"Ġmysql":12896,"via":12897,"PAGE":12898,"Ġdesign":12899,"272":12900,"Ġpurposes":12901,"TagName":12902,"FIRST":12903,"ĠCertificate":12904,"ived":12905,"OAuth":12906,"Ġcher":12907,"xes":12908,"xhtml":12909,"arded":12910,"{\\":12911,"Ġdrive":12912,"$'":12913,"Fill":12914,"sx":12915,"normalized":12916,"QQ":12917,"olated":12918,"Ġsouth":12919,"Rules":12920,"noop":12921,"boxes":12922,"John":12923,"coordinates":12924,"(((":12925,"distinct":12926,"Ġda":12927,"Ġupdating":12928,"Operations":12929,"Ġfaster":12930,"047":12931,"<=":12932,"ĊĠĠĠĠĠĠĠĠĠĠĠĠĠĠĠĠĠĠĠĠĠĠĠĠĠĠĠĠĠĠĠĠĠĠĠĠĠĠĠĠĠĠĠĠĠĠĠĠĠĠĠĠĠĠĠĠĠ":12933,"ĠAdding":12934,"Variant":12935,"isnan":12936,"åı·":12937,"æĺ¯ä¸Ģä¸ª":12938,"ĠRegex":12939,"Microsoft":12940,"assigned":12941,"httplib":12942,"Ġtouch":12943,"lend":12944,"Repe":12945,"cuts":12946,"Mobility":12947,"hit":12948,"verified":12949,"Ġcalculated":12950,"Ġrx":12951,"Ġ:=":12952,"Ġmen":12953,"temperature":12954,"styles":12955,"getAttribute":12956,"Html":12957,"avor":12958,"getenv":12959,"ERO":12960,"SECRET":12961,"Matches":12962,"Ġbuiltins":12963,"debit":12964,"Ġxs":12965,"Ġapplies":12966,"354":12967,"ĠShow":12968,"ATIONS":12969,"5678":12970,"Ġxblock":12971,"ĠModi":12972,"squared":12973,"anger":12974,"cmds":12975,"ModelAdmin":12976,"Jar":12977,"]/":12978,"è´":12979,"dium":12980,"Ġroutine":12981,"ReplayAll":12982,"ufficient":12983,"Forward":12984,"Ġdeci":12985,"ACG":12986,"279":12987,"ĠChild":12988,"Retry":12989,"tan":12990,"allocate":12991,"Ġnl":12992,"Ġele":12993,"Ġbg":12994,"Ġhalf":12995,"Ġ102":12996,"grity":12997,"Ġuan":12998,"Ġgenerating":12999,"composition":13000,"NAMESPACE":13001,"ĠHat":13002,"SHORT":13003,"Ġ2003":13004,"Join":13005,"Ġevaluated":13006,"between":13007,"closure":13008,"Li":13009,"riends":13010,"042":13011,"itervalues":13012,"Regression":13013,"dimensional":13014,"193":13015,"IDDLE":13016,"bugs":13017,"crets":13018,"FloatField":13019,"gain":13020,"abic":13021,"Ġabc":13022,"+_+_+_+_":13023,"ĠFILE":13024,"igure":13025,"Hz":13026,"805":13027,"Kind":13028,"Nested":13029,"afi":13030,"Ġshuffle":13031,")>":13032,"IA":13033,"TFtdc":13034,"Ġreceiver":13035,"ĠWin":13036,"ALF":13037,"Ġrotation":13038,"ĠStruct":13039,"[_":13040,"oser":13041,"Archive":13042,"=/":13043,"ĠUSER":13044,"\"]))":13045,"FOO":13046,"PUB":13047,"terable":13048,"sertions":13049,"ĠSingle":13050,"ĠONE":13051,"DISABLE":13052,"ĠHEAD":13053,"fraction":13054,"ulse":13055,"Ġ{}).":13056,"rw":13057,"tack":13058,"011":13059,"CONTROL":13060,"bt":13061,"wide":13062,"represent":13063,"ĠWorld":13064,"gradients":13065,"banner":13066,"645":13067,"Partition":13068,"Ġcinder":13069,"Ġproviding":13070,"Ġsubmission":13071,"ulls":13072,"WM":13073,"ĠUnix":13074,"Ġreached":13075,"(\"{":13076,"Typeæĺ¯ä¸Ģä¸ª":13077,"ReferenceCount":13078,"Fil":13079,"Ġdelegate":13080,"Fire":13081,"Ġgather":13082,"ĠEither":13083,"minus":13084,"260":13085,"uel":13086,"ouch":13087,"________________":13088,"ACCEPT":13089,"Scalar":13090,"blocking":13091,"PacketTagList":13092,"ilarity":13093,"arbage":13094,"rogate":13095,"ĠEl":13096,"Ġchdir":13097,"Ġ75":13098,"Fore":13099,"nw":13100,"Ġreload":13101,"pem":13102,"Ġapplications":13103,"Ġvisual":13104,"membership":13105,"median":13106,"SF":13107,"Ġlibvirt":13108,"canonical":13109,"TAX":13110,"Ð°Ð":13111,"gcc":13112,"abo":13113,"ĠRange":13114,"havior":13115,"Ġnotifications":13116,"Ap":13117,"mr":13118,"Ġdy":13119,"TestResult":13120,"lacing":13121,"olding":13122,"ĠBig":13123,"unary":13124,"ĠOrg":13125,"Team":13126,"Scroll":13127,"5000":13128,"Bal":13129,"Ġidentical":13130,"Ġpow":13131,"æĺĵ":13132,"isect":13133,"Ġ('',":13134,"Ġpeople":13135,"inheritance":13136,"Ġbulk":13137,"critical":13138,"ĠElementTree":13139,"ĠCLAIM":13140,"ints":13141,"LossModel":13142,"attempts":13143,"ĠWait":13144,"397":13145,"ĠSTAT":13146,"otor":13147,"Ġdatasets":13148,"SetProber":13149,"Ġintegration":13150,"Destination":13151,"odb":13152,"ToType":13153,"greater":13154,"357":13155,"Ġregexp":13156,"ALINGS":13157,"Ġprefixes":13158,"tiguous":13159,"GO":13160,"epochs":13161,"angles":13162,"Za":13163,"peek":13164,"Seconds":13165,"WEB":13166,"PB":13167,"Ġparagraph":13168,"sysvals":13169,"Ġpacked":13170,"Ġpc":13171,"Ġdiscovery":13172,"890":13173,"LAR":13174,"chi":13175,"898":13176,"Ġalignment":13177,"EOF":13178,"rem":13179,"Ġlhs":13180,"anisation":13181,"Analysis":13182,"Estimator":13183,"comma":13184,")\"),":13185,"./":13186,"vite":13187,"Exchange":13188,"Monitor":13189,"maries":13190,"recipe":13191,"licts":13192,"visions":13193,"WifiMacHeader":13194,"Ġsurface":13195,"don":13196,"Ġintermediate":13197,"ĠDEALINGS":13198,"FACE":13199,"Embed":13200,"è¿":13201,"assive":13202,"DOT":13203,"Ġlp":13204,"Ġprog":13205,"ban":13206,"completion":13207,"ATFORM":13208,"languages":13209,"Ġplaylist":13210,"chromium":13211,"242":13212,"mpi":13213,"ATURE":13214,"swift":13215,"ToOneField":13216,"Ġdeep":13217,"997":13218,"prise":13219,"Hand":13220,"recognized":13221,"Ġxy":13222,"accum":13223,"news":13224,"ĠStudio":13225,"AWS":13226,"']).":13227,"delitem":13228,"ĠNONINFRINGEMENT":13229,"Ġcrypto":13230,"lenv":13231,"Ġstacklevel":13232,"subscriptions":13233,"oney":13234,"ĠĠĠĠĠĠĠĠĠĠĠĠĠĠĠĠĠĠĠĠĠĠĠĠĠĠ":13235,"ances":13236,"Ġorganization":13237,"dbname":13238,"quick":13239,"Attach":13240,"eItsMe":13241,"outine":13242,"routes":13243,"ĠPop":13244,"darwin":13245,"BINARY":13246,"TI":13247,"alty":13248,"workspace":13249,"nobr":13250,"356":13251,"Ġconnector":13252,"ĠWAR":13253,"869":13254,"toc":13255,"Ġdeserialized":13256,"Leg":13257,"crc":13258,"Ġcoords":13259,"DEV":13260,"12345":13261,"ĠRegression":13262,"Ġcovariance":13263,"013":13264,"Ġdoctype":13265,"Google":13266,"455":13267,"ĠSchema":13268,"Ġ403":13269,"Ġexecutor":13270,"TemporaryFile":13271,"BUTTON":13272,"Ø±":13273,"Ġinstring":13274,"='')":13275,"ĠInstall":13276,"Ġpygments":13277,"*)":13278,"dg":13279,"tot":13280,"RuntimeError":13281,"ĠExtension":13282,"Duration":13283,"Raster":13284,"SUM":13285,"aco":13286,"yper":13287,"325":13288,"################################################################################":13289,"Ġmimetypes":13290,"äº¤æĺĵ":13291,"Ġbp":13292,"ĠĠĠĠĠĠĠĠĠĠĠĠĠĠĠĠĠĠĠĠĠĠĠĠĠĠĠĠĠĠĠ":13293,"Ġascii":13294,"Ġheap":13295,"Ġ67":13296,"you":13297,"istent":13298,"270":13299,"rowse":13300,"EXIST":13301,"ĠDetail":13302,"ĠSettings":13303,"UInt":13304,"urst":13305,"ablish":13306,"combine":13307,"stantial":13308,"_))":13309,"CONST":13310,"ĠVirtual":13311,"XXXXXXXX":13312,"FEATURES":13313,"402":13314,"Ġtransformation":13315,"pth":13316,"Equals":13317,"Ġintro":13318,"276":13319,"dimensions":13320,"instrument":13321,"reo":13322,"Ġcombine":13323,"\")))":13324,"zones":13325,"SYS":13326,"ĠSpecify":13327,"'%(":13328,"CAL":13329,"Ġsf":13330,"latitude":13331,"754":13332,"ĠÃ":13333,"subplot":13334,"Ġmanip":13335,"products":13336,"drivers":13337,"ĠCommunic":13338,"cessible":13339,"located":13340,"Ġbins":13341,"))/":13342,"Ġtokenize":13343,"406":13344,"Ġcent":13345,"ollow":13346,"ĠMAC":13347,"nounce":13348,"dfhf":13349,"distutils":13350,"Ġsorting":13351,"OPTION":13352,"403":13353,"ĠCL":13354,"Username":13355,"\\\"\\":13356,"875":13357,"ĠAnsibleError":13358,"ĊĊĠĠĠĠĠĠĠĠ":13359,"diter":13360,"oe":13361,"zation":13362,"indic":13363,"ocation":13364,"Ġ@@":13365,"onts":13366,"IFY":13367,"KD":13368,"Ġsaving":13369,"ĠContrib":13370,"UC":13371,"Ġsubsequent":13372,"Ġtwice":13373,"accuracy":13374,"Plan":13375,"hop":13376,"Ġnt":13377,"Hop":13378,"answers":13379,"symlink":13380,"RR":13381,"ĠStep":13382,"ĠIssue":13383,"INAL":13384,"Ġ41":13385,"Ġfastbinary":13386,"LIMIT":13387,"Ġbackward":13388,"çº":13389,"Ġtextwrap":13390,"charmap":13391,"ĠDown":13392,"Ġsubstantial":13393,"Bin":13394,"Ġiface":13395,"toggle":13396,"Ġcherrypy":13397,"idl":13398,"urnished":13399,"sentinel":13400,"Ġending":13401,"Ġefficient":13402,"\")])":13403,"ospec":13404,"Rows":13405,"267":13406,"ĠFeature":13407,"mps":13408,"trunk":13409,"caption":13410,"Delta":13411,"]})":13412,"ĠDeprecationWarning":13413,"Face":13414,"Hasher":13415,"optimize":13416,"(.":13417,"*')":13418,"mend":13419,"PRIV":13420,"1307":13421,"Ġconfigurations":13422,"ĠSpatial":13423,"340":13424,"Enumeration":13425,"Ġcflags":13426,"Geom":13427,"Credentials":13428,"msgs":13429,"Finished":13430,"Ġclients":13431,"Ġhowever":13432,"concatenate":13433,"Ġlinenum":13434,"ĠConst":13435,"sequences":13436,"Ġaway":13437,"hicle":13438,"+)\\":13439,"243":13440,"utive":13441,"348":13442,"396":13443,"scenario":13444,"'(\\":13445,"Ġie":13446,"Ġcons":13447,"Ġauthorization":13448,"TD":13449,"ĠAp":13450,"ctors":13451,"agg":13452,"99999999":13453,"IGH":13454,"concrete":13455,"checkbox":13456,"Ġfilled":13457,"ope":13458,"}},":13459,"Ġminimal":13460,"DUCT":13461,"840":13462,"MF":13463,"Ġtolerance":13464,"866":13465,"Ġtv":13466,"Ġcontrols":13467,"ĠValues":13468,"ormed":13469,"Ġ54":13470,"executor":13471,"?\"":13472,"Ġsublicense":13473,"Ġobjs":13474,"bat":13475,"=\"#":13476,"fdm":13477,"SECUR":13478,"Ġimporter":13479,"ĠRaw":13480,"ĠHas":13481,"ĠConn":13482,"ĠKeyboardInterrupt":13483,"Ġcallbacks":13484,"feedback":13485,"llegal":13486,"rsa":13487,"ĠTCP":13488,">[^":13489,"rsplit":13490,"ĠOptionParser":13491,"Ġmixed":13492,"Ġ(`":13493,"calcul":13494,"Expect":13495,"ami":13496,"Ġoptimize":13497,"nectivity":13498,"fu":13499,"Î±":13500,"reversed":13501,"Ġdirectives":13502,"ĠMongo":13503,"ALLED":13504,"Ġ/*":13505,"Ġreceiv":13506,"Ġdeclar":13507,"websocket":13508,"HEIGHT":13509,"ĠSetting":13510,"Ġbelong":13511,"scatter":13512,"ĠCOL":13513,"ĠRadio":13514,"ĠApplication":13515,"Ġthink":13516,"toplevel":13517,"Ġinterest":13518,"Capt":13519,"bon":13520,"fromstring":13521,"weighted":13522,"Ġproj":13523,"Ġcompared":13524,"SKIP":13525,"Ġmodname":13526,"upon":13527,"Subject":13528,"Ġsatis":13529,"andatory":13530,"POP":13531,"IOS":13532,"HAS":13533,"etched":13534,"propagation":13535,"{}\".":13536,"ĠManager":13537,"Ġgoes":13538,"577":13539,"Ġ330":13540,"Ġpast":13541,"lun":13542,"interactive":13543,"reactor":13544,"declared":13545,"Ġmappings":13546,"structures":13547,"setLevel":13548,"394":13549,"ĠCurrently":13550,"Center":13551,"detect":13552,"Ġaddon":13553,"SECURITY":13554,"temporary":13555,"Ġqty":13556,"Ġdownloaded":13557,"tead":13558,"lize":13559,"covered":13560,"ualenv":13561,"people":13562,"pyplot":13563,"Ġ53":13564,"another":13565,"Ġparen":13566,"Ġ192":13567,"capt":13568,"Before":13569,"iterations":13570,"241":13571,"escaped":13572,"ĠCategory":13573,"social":13574,"ndims":13575,"Ġ180":13576,"containers":13577,"RULE":13578,"lavors":13579,"Dimen":13580,"easy":13581,"wraps":13582,"507":13583,"Ġproduced":13584,"ĠBRACKET":13585,"Ms":13586,"ĠLINE":13587,"Ġcourses":13588,"/\")":13589,"Ġsale":13590,"abcd":13591,"Ġxcode":13592,"171":13593,"čĊĠĠĠĠĠĠĠĠčĊĠĠĠĠĠĠĠ":13594,"350":13595,"ĊĊĠĠĠĠĠĠĠĠĠĠ":13596,"reement":13597,"Ġspan":13598,"ĠStatic":13599,"PropagationLossModel":13600,"Ġazure":13601,"life":13602,"quant":13603,"REL":13604,"deployment":13605,"Force":13606,"redirects":13607,"Ġtarfile":13608,"Ġtypically":13609,"čĊĉĉĉ":13610,"Queries":13611,"Ġhist":13612,"Ġdirective":13613,"rss":13614,"xen":13615,"hemer":13616,"Ġ*);\\":13617,"Ġopening":13618,"';":13619,"untu":13620,"Ġquanti":13621,"ĠTechno":13622,"setuptools":13623,"Ġderiv":13624,"dark":13625,"Ġ'*'":13626,"Ġcaching":13627,"Ġsdk":13628,"Ġunion":13629,"ENTITY":13630,"Ġpn":13631,"Ġwanted":13632,"tolist":13633,"maxsize":13634,"ĠPassword":13635,"Ġ(('":13636,"ĠNAME":13637,"Ġtt":13638,"Ġsnap":13639,"Ġinvenio":13640,"ĠGlobal":13641,"Ġnodelist":13642,"275":13643,"SocketAddress":13644,"Ġlr":13645,"fieldname":13646,"Ġ','":13647,"Ġcapi":13648,"TestRunner":13649,"Ġdensity":13650,"attname":13651,"Tracker":13652,"Ġ._":13653,"disp":13654,"isa":13655,"rypt":13656,"879":13657,"controls":13658,"Ġcompletion":13659,"Ġdescribing":13660,">(":13661,"Got":13662,"ĠPEP":13663,"skbaddr":13664,"COOKIE":13665,"Ġdegree":13666,"Ġmix":13667,"Ġ63":13668,"MEDIA":13669,"\\)\\":13670,"uploader":13671,"four":13672,"Ġsymbolic":13673,"idom":13674,"Ġextent":13675,"ÃŃ":13676,"Ġetag":13677,"']})":13678,"VIR":13679,"Ġsel":13680,"Mail":13681,"ECore":13682,"wc":13683,"Ġrsp":13684,"ivot":13685,"ĠDateTime":13686,"']\"})":13687,"graded":13688,"QuerySet":13689,"Ġscaling":13690,"bx":13691,"fv":13692,"lator":13693,"ĠForti":13694,"MessageBox":13695,"ilation":13696,"resolved":13697,"...'":13698,"alignment":13699,"Wimax":13700,"plots":13701,"046":13702,"Ġshows":13703,"Ġscroll":13704,"nThe":13705,"ĠExtended":13706,"Disable":13707,"NtUser":13708,"AAAAAAAA":13709,"multiply":13710,"Ġnonce":13711,"Ġoptimization":13712,"Ġ58":13713,"Ġhide":13714,"-----------":13715,"SSH":13716,"provision":13717,"Ġcorresponds":13718,"laps":13719,"cccc":13720,"igi":13721,"Ġ-----------------------------------------------------------------------------":13722,"glyph":13723,"statistics":13724,"506":13725,"Rest":13726,"Ġldap":13727,"à¤ķ":13728,"Ġchanging":13729,"265":13730,"268":13731,"ĠCodec":13732,"Ã¤":13733,"Ġ79":13734,"Given":13735,"Ġcollected":13736,"gather":13737,"Ġfront":13738,"endif":13739,"fice":13740,"adb":13741,"['__":13742,"Ġdescribe":13743,"338":13744,"Resources":13745,"twitter":13746,"ender":13747,"CLASSES":13748,"Too":13749,"æł":13750,"Ġextras":13751,"Directories":13752,"fA":13753,"transactions":13754,"InterfaceAddress":13755,"ĠSUPPORT":13756,"Must":13757,"Ġfan":13758,"Ġhi":13759,"IOError":13760,"cards":13761,"enk":13762,"Ġvertical":13763,"ä¿":13764,"ina":13765,"__')":13766,"Acti":13767,"INITIAL":13768,"limin":13769,"Ġcont":13770,"tokenizer":13771,"SHARED":13772,"Ġrela":13773,"STOR":13774,"prior":13775,"Fit":13776,"nodeName":13777,"Ġlisting":13778,"Neighbor":13779,"uo":13780,"Ġnsecs":13781,"Ġwarehouse":13782,"DIST":13783,"']=":13784,"Ġ:,":13785,"Ġcov":13786,"ĠBea":13787,"Ġstreams":13788,"exportLiteral":13789,"Secret":13790,"MobilityModel":13791,"Ġsentinel":13792,"335":13793,"Ġdeleting":13794,"Ġmsvs":13795,"ĠExpected":13796,"than":13797,"oproject":13798,"lead":13799,"eting":13800,"Ġconcrete":13801,"MACH":13802,"longitude":13803,"Ġsimplejson":13804,"variate":13805,"Ġconverting":13806,"syms":13807,"GLOBAL":13808,"Ġwish":13809,"Ġaccessed":13810,"Ġboard":13811,"370":13812,"ĠChecks":13813,"cgi":13814,"aneous":13815,"Validation":13816,"populate":13817,"474":13818,"simul":13819,"ObjectDeleter":13820,"ĠBecause":13821,"Ġhealth":13822,"Ġprecedence":13823,"ately":13824,"implemented":13825,"Ġprec":13826,"://%":13827,"ĠMSVS":13828,"pref":13829,"998":13830,"Ġbackslash":13831,"Card":13832,"Ġparticle":13833,"photo":13834,"SECTION":13835,"Ġtoplevel":13836,"LABEL":13837,"Ofdm":13838,"newlines":13839,"Rx":13840,"UAL":13841,"Enrollment":13842,"ElementsBy":13843,"gm":13844,"abort":13845,"385":13846,"UME":13847,"Fr":13848,"ylabel":13849,"STDOUT":13850,"Ġsecondary":13851,"Ġweakref":13852,".\"))":13853,"+')":13854,"Ġsizeof":13855,"Ġscene":13856,"ĊĠĠĠĠĊĠĠĠĠĠĠĠ":13857,"('-',":13858,"2022":13859,"DH":13860,"ĠTer":13861,"Calcul":13862,"ĠSecurity":13863,"Ba":13864,"Ġclusters":13865,"ceipt":13866,"Ġsit":13867,"Ġsubs":13868,"Ġopenstack":13869,"ĠJust":13870,"ufffe":13871,"Ġnat":13872,"ĠPER":13873,"ĠStore":13874,"Freq":13875,"lli":13876,"Ġsi":13877,"Asia":13878,"segments":13879,"infile":13880,"neighbor":13881,"Ġcommunic":13882,"AUTO":13883,"ICK":13884,"Related":13885,"vileges":13886,"NON":13887,"]},":13888,"dog":13889,"['%":13890,"attery":13891,"wallet":13892,"possible":13893,"ĠStack":13894,"BAR":13895,"isdigit":13896,"trict":13897,"ISH":13898,"Gyp":13899,"SCH":13900,"XM":13901,"Require":13902,"Ġnewly":13903,"Ġpopulate":13904,"323":13905,"AttributeInformation":13906,"Changes":13907,"Ġfw":13908,"278":13909,"ĠSTART":13910,"challenge":13911,"Cs":13912,"Ensure":13913,"Ġexclusive":13914,"__\",":13915,"ĠSc":13916,"Ġrespec":13917,"Ġlot":13918,"ritical":13919,"GetN":13920,"Creation":13921,"ILDE":13922,"herits":13923,"Ġreports":13924,"]]),":13925,"Ġintercept":13926,"sho":13927,"Ġbridge":13928,"tric":13929,"ĠDefine":13930,"SETTINGS":13931,"ĠSpark":13932,"XXX":13933,"2020":13934,"ANNEL":13935,"ĠDWORD":13936,"pio":13937,"505":13938,"ĠRetrieve":13939,"Coordin":13940,"makefile":13941,"Ġbehaviour":13942,"Ġalternative":13943,"398":13944,"FOUND":13945,"Optimizer":13946,"LANGUAGE":13947,"Break":13948,"tier":13949,"ĠSA":13950,"toolbar":13951,"Ġ401":13952,"Ġfeat":13953,"TRA":13954,"Ġstructures":13955,"Publish":13956,"ulo":13957,"CLUDE":13958,"Sources":13959,"Ġ120":13960,"wikipedia":13961,"Ins":13962,"plug":13963,"ĠCommon":13964,"MIT":13965,"ĠDec":13966,"Functions":13967,"Ġaudit":13968,"confidence":13969,"become":13970,"Ratio":13971,"Ġdd":13972,"staur":13973,"Ġiterate":13974,"authenticate":13975,"889":13976,"Ġglobs":13977,"Watch":13978,"mix":13979,"Ġguest":13980,"vest":13981,"translations":13982,"heading":13983,"ral":13984,"Ġfurnished":13985,"ĠApi":13986,"uli":13987,"Ġlimited":13988,"FAILURE":13989,"ARGS":13990,"xmlns":13991,"ĠVALUES":13992,"EMPTY":13993,"Gate":13994,"ĠPopen":13995,"029":13996,"888":13997,"arabic":13998,"Tex":13999,"Expi":14000,"Ġtele":14001,"cflags":14002,"579":14003,"Dot":14004,"quotes":14005,"Ġdomains":14006,"\"%(":14007,"OG":14008,"Ġcomputation":14009,":.":14010,"fold":14011,"ĠNeed":14012,"djangoproject":14013,"Uri":14014,"ames":14015,"Labels":14016,"Broker":14017,"Ġwraps":14018,"FORMATS":14019,"different":14020,"Ġrespect":14021,"icky":14022,"blk":14023,"Ġagreements":14024,"chie":14025,"Bot":14026,"Ġbb":14027,"tostring":14028,"SDL":14029,"Ġepsilon":14030,"Ġthrown":14031,"dented":14032,"accessor":14033,"Slice":14034,"liers":14035,"HPDF":14036,"tia":14037,"hm":14038,"already":14039,"ament":14040,"ĠUI":14041,"392":14042,"Ġexecuting":14043,"regularizer":14044,"066":14045,"Ġinterpolation":14046,"writeFieldEnd":14047,"writeFieldBegin":14048,"CDATA":14049,"Ġ['__":14050,"Ġ'='":14051,"Ġdn":14052,"Ġstrftime":14053,"Logging":14054,"Ġ####":14055,"ĠSV":14056,"Ep":14057,"RG":14058,"Ġrt":14059,"Codes":14060,"ĠDomain":14061,"Ġserve":14062,"Ġfakes":14063,"Tr":14064,"izable":14065,"Ġrendering":14066,"Ġlocator":14067,"Ġdeletion":14068,"?'":14069,"Ġradi":14070,"DateField":14071,"Cross":14072,"sence":14073,"Lost":14074,"Ġproposed":14075,"ĠMerge":14076,"iet":14077,"('.',":14078,"({})":14079,"dget":14080,"ĠLaTeX":14081,"è®":14082,"AGG":14083,"ĠPyQt":14084,"ceil":14085,"Ġstores":14086,"msbuild":14087,"('\"":14088,"ĠInst":14089,"Ġtyping":14090,"Linux":14091,"ĠIgnore":14092,"waiting":14093,"Ġbalance":14094,"Ġphysical":14095,"èµ":14096,"('(":14097,"592":14098,"395":14099,"ometries":14100,"torrent":14101,"ĠTILDE":14102,"protection":14103,"IsA":14104,"ofs":14105,"Ġapprox":14106,"Extended":14107,"overflow":14108,"General":14109,"RESOURCE":14110,"iversity":14111,"VED":14112,"txid":14113,"wf":14114,"Ġoften":14115,"Ġtransition":14116,"will":14117,"Ġpolicies":14118,"Ġearlier":14119,"criteri":14120,"mach":14121,"Ġofproto":14122,"Ġworkers":14123,"prefixes":14124,"Depth":14125,"Targets":14126,"Kernel":14127,"moval":14128,"scopes":14129,"enumeration":14130,"Printer":14131,"ĠTop":14132,"ĠGyp":14133,"Ġencodings":14134,"Ġ'_'":14135,"limited":14136,"330":14137,"EB":14138,"Starting":14139,"996":14140,"coerce":14141,"ĠREG":14142,"transition":14143,"?://":14144,"capi":14145,"tel":14146,"ĠHTTPS":14147,"Background":14148,"Alias":14149,"\")):":14150,"GEOS":14151,"æľŁ":14152,"EF":14153,"Ġidentifiers":14154,"__(**":14155,"plat":14156,"Ġ66":14157,"Ġneg":14158,"VP":14159,"alarm":14160,"ĠBinary":14161,"440":14162,"fla":14163,"Ġvo":14164,"Ġglyph":14165,"Reply":14166,"queeze":14167,"xlabel":14168,"Mem":14169,"emails":14170,"ĠMove":14171,"[::-":14172,"pot":14173,"istributed":14174,"Complete":14175,"NL":14176,"Ġpsy":14177,"Ġfooter":14178,"SPE":14179,"getElementsBy":14180,"udy":14181,"Flask":14182,"stra":14183,"datatype":14184,"Ġremoves":14185,"isters":14186,"803":14187,"initi":14188,"whitelist":14189,"Ġoptionally":14190,"rpm":14191,"**(":14192,"enerated":14193,"Sk":14194,"infos":14195,"ĠConfigParser":14196,"exchange":14197,"Ġmonkey":14198,"again":14199,"percentage":14200,"::_":14201,"Ġplug":14202,"jid":14203,"authorize":14204,"playbook":14205,"MSVS":14206,"Ġpm":14207,"Ġmobj":14208,"quo":14209,"Ġstartup":14210,"CURRENT":14211,"ĠMaximum":14212,"Ġnice":14213,"ĠCLI":14214,"Matching":14215,"Scene":14216,"xmit":14217,"027":14218,"APPS":14219,"Ġ\"_\"":14220,"ircuit":14221,"AndVerify":14222,"mapp":14223,"Future":14224,"FilePath":14225,"TZ":14226,"identifiers":14227,"allocator":14228,">::":14229,"jpeg":14230,"Ø¯":14231,"baseline":14232,"Ġlocked":14233,"vlc":14234,"Receive":14235,"phases":14236,"contextmanager":14237,"Ġuploaded":14238,"testsuite":14239,"fds":14240,"Ġsolve":14241,"unsafe":14242,"ĠCar":14243,"Recur":14244,"ĠDebug":14245,"PREC":14246,"failUnlessEqual":14247,"scipy":14248,"wi":14249,"agents":14250,"[@":14251,"interp":14252,"offsets":14253,"rospection":14254,"+\"-":14255,"Ġnsec":14256,"ingular":14257,"pwd":14258,"ĠStreet":14259,"ĠOpenStack":14260,"TOT":14261,"uer":14262,"Ġ...,":14263,"('</":14264,"CAPE":14265,"ificant":14266,"Ġrm":14267,"queued":14268,"Lazy":14269,"retrieve":14270,"213":14271,"UX":14272,"038":14273,"audit":14274,"embedding":14275,"Øª":14276,"ATIVE":14277,"NotImplemented":14278,"ĠAnaly":14279,"DATAB":14280,"deletion":14281,"ĠMS":14282,"NOW":14283,"locity":14284,"=[])":14285,"Ġreleased":14286,"every":14287,"ADMIN":14288,"Ġ';":14289,"Ġdeclared":14290,"reek":14291,"Ġexpects":14292,"xmodule":14293,"Ġfatal":14294,"Ġdeployment":14295,"ĠOpenSSL":14296,"retch":14297,"OneToOneField":14298,"acteri":14299,"NaN":14300,"succe":14301,"URSE":14302,"ĠSQLAlchemy":14303,"Ġnic":14304,"Ġhandshake":14305,"Month":14306,"KL":14307,"sto":14308,"Ġ#----------------------------------------------------------------":14309,"amba":14310,"Ġindentation":14311,"Ġtreat":14312,"Ġ101":14313,"ĠSDL":14314,"ago":14315,"ĠDOM":14316,"vote":14317,"Ġrecommended":14318,"Ġslots":14319,"ĠPart":14320,"358":14321,"afii":14322,"QA":14323,"ZW":14324,"opcode":14325,"ĠMultiple":14326,"Ġmarkers":14327,";&#":14328,"setEnabled":14329,"Ġtypehandlers":14330,"GINE":14331,"_(\"":14332,"éĢ":14333,"defines":14334,"CTGG":14335,"OVER":14336,"highlight":14337,"sax":14338,"åĽ":14339,"substit":14340,"bld":14341,"Ġunquote":14342,",[":14343,"lm":14344,"medium":14345,"east":14346,"ĠAmazon":14347,"subtitle":14348,"843":14349,"Activity":14350,"Now":14351,"iro":14352,"conditional":14353,"Priority":14354,"************************************************************************":14355,"moid":14356,"Runtime":14357,"Ġdegrees":14358,"Ġblah":14359,"Ġmovie":14360,"Ġroots":14361,"slow":14362,"lope":14363,"Alter":14364,"LICIT":14365,"rewrite":14366,"maker":14367,"classification":14368,"openElements":14369,"Ġvalidators":14370,"nodelist":14371,"429":14372,"Vec":14373,"Ġpwd":14374,"valueOf":14375,"Sort":14376,"Ġtheano":14377,"computed":14378,"Shift":14379,"Creating":14380,"\"{":14381,"-',":14382,"Pixel":14383,"tient":14384,"oll":14385,"ĠProfile":14386,"orders":14387,"Ġpreferred":14388,"ModuleStore":14389,"Ġ*\"":14390,"CSS":14391,"lis":14392,"ĠCommandError":14393,"discard":14394,"HASH":14395,"Ġencryption":14396,")*(":14397,"Your":14398,"Ġattrib":14399,"Ġsmtp":14400,"Ġmach":14401,"ĠReplace":14402,"Dependency":14403,"Ġloads":14404,"GroupName":14405,"LIBR":14406,"Libvirt":14407,"768":14408,"ĠMember":14409,"discussion":14410,"rab":14411,"Ġassertion":14412,"lecule":14413,"Press":14414,"Ġtc":14415,"Ġtrees":14416,"proba":14417,"usable":14418,"vor":14419,"ByteTagIterator":14420,"*\",":14421,"cit":14422,"\">%":14423,"QUARE":14424,"ĠGui":14425,"Gets":14426,"ĠCounter":14427,"tracking":14428,"Ġrestored":14429,"vif":14430,"Ġ[]),":14431,"EnumValue":14432,"Ġever":14433,"silent":14434,"Ġletters":14435,"staurant":14436,"lio":14437,"GUI":14438,"Ġelapsed":14439,"TestBase":14440,"Ġreadline":14441,"Ġwa":14442,"trial":14443,".])":14444,"stors":14445,"Ġhierarchy":14446,"commend":14447,"Ġinternally":14448,"MQ":14449,"finalize":14450,"Dynamic":14451,"Ġ'^":14452,"ĠSuite":14453,"Ġendif":14454,"DIRS":14455,"IFIC":14456,"Ġslash":14457,"solution":14458,"Ġplist":14459,"Ġdiffer":14460,"endpoints":14461,"Ġxpath":14462,"predicate":14463,"adm":14464,"matmul":14465,"Ġworkspace":14466,"Ġod":14467,"RFC":14468,"mov":14469,"BREW":14470,"STER":14471,"PARAMETER":14472,"ĠFOUR":14473,"_',":14474,"Ġspe":14475,"colour":14476,"flux":14477,"terminate":14478,"drag":14479,"suspend":14480,"detach":14481,"ERN":14482,"newaxis":14483,"vies":14484,"Ie":14485,"Ġcauses":14486,"desktop":14487,"eggs":14488,"Ġstripped":14489,"Ġlxml":14490,"Bridge":14491,"Ġcity":14492,"ĠPygments":14493,"AES":14494,"rax":14495,"oration":14496,"Ġestimate":14497,"Ġinstrument":14498,"Contact":14499,"Complex":14500,"ĠContentType":14501,"abeled":14502,"Ġatoms":14503,"ĠReferences":14504,"Ġ`[":14505,"posal":14506,"syscalls":14507,"Messages":14508,"ĠGets":14509,"Ġadj":14510,"Ġwrites":14511,"Ġcertificates":14512,"gif":14513,"yellow":14514,"Ġ())":14515,"ĠĠĠĠĠĠĠĠĠĠĠĠĠĠĠĠĠĠĠĠĠĠĠĠĠ":14516,"Arguments":14517,"ĠUNDEFINED":14518,"342":14519,"609":14520,"rector":14521,"ortran":14522,"285":14523,"Ġphi":14524,"udi":14525,"Ġints":14526,"USH":14527,"PTR":14528,"beam":14529,"Ġ\".\"":14530,"ĠSparse":14531,"AGIC":14532,"CPP":14533,":{":14534,"illed":14535,"sqlalchemy":14536,"Ġsentence":14537,"Ġconstruction":14538,"373":14539,"Ġbracket":14540,"ama":14541,"rfind":14542,"tos":14543,"Ġrobot":14544,"Ġfiltering":14545,"NAMES":14546,"Ġtruncate":14547,"zulip":14548,"\\)\\(',":14549,"Ġang":14550,"fortios":14551,"Management":14552,"OptionParser":14553,"Ġari":14554,"clients":14555,"Ġencountered":14556,"hebrew":14557,"totype":14558,"\">\\":14559,"NETWORK":14560,"Ġkill":14561,"ĠBeautiful":14562,"lengths":14563,"delivery":14564,"AGENT":14565,"ming":14566,"quad":14567,"Ġwebob":14568,"Ġmoves":14569,"Ġscopes":14570,"NetDeviceContainer":14571,"hemeral":14572,"stuff":14573,"Ġ['--":14574,"ĠIDL":14575,"identical":14576,"uds":14577,"infer":14578,"ĠSize":14579,"779":14580,"Ġreported":14581,"pets":14582,"REQ":14583,"avatar":14584,"508":14585,"tte":14586,"ĠJson":14587,"netmask":14588,"Ġ52":14589,"893":14590,"Kit":14591,"Ġblocking":14592,"Ġpackets":14593,"bracket":14594,"km":14595,"nup":14596,"Ġ'!":14597,"Ġtranslated":14598,"à¥ĭ":14599,"aware":14600,"brid":14601,"Ġonto":14602,"DEFINE":14603,"Ġresume":14604,"Ġdmp":14605,"Ġ('/":14606,"BOSE":14607,"uts":14608,"Ġweighted":14609,"Ġ69":14610,"Ġtopology":14611,"Tran":14612,"Ġsd":14613,"Ã¶":14614,"CharBlock":14615,"Ġmembership":14616,"Ġphone":14617,"ĠApply":14618,"=')":14619,"ĠLim":14620,"ĠHome":14621,"263":14622,"FAKE":14623,"contract":14624,"ĠSig":14625,"776":14626,"Checked":14627,"elcome":14628,"ĠGPL":14629,
[...]
